{
  "src_word2id": {
    "<pad>": 0,
    "<s>": 1,
    "</s>": 2,
    "<UNK>": 3,
    "now": 4,
    "we": 5,
    "&apos;re": 6,
    "scan@@": 7,
    "ning": 8,
    "about": 9,
    "1@@": 10,
    "5,000": 11,
    "books": 12,
    "a": 13,
    "month": 14,
    ",": 15,
    "and": 16,
    "it": 17,
    "&apos;s": 18,
    "starting": 19,
    "to": 20,
    "ge@@": 21,
    "ar": 22,
    "up": 23,
    "another": 24,
    "fac@@": 25,
    "tor": 26,
    "of": 27,
    "two": 28,
    "from": 29,
    "there": 30,
    ".": 31,
    "so": 32,
    "all": 33,
    "in": 34,
    "that": 35,
    "going": 36,
    "very": 37,
    "well": 38,
    "move": 39,
    "out": 40,
    "the": 41,
    "just": 42,
    "@-@": 43,
    "cop@@": 44,
    "y@@": 45,
    "right": 46,
    "into": 47,
    "print": 48,
    "world": 49,
    "I": 50,
    "think": 51,
    "--": 52,
    "kind": 53,
    "libr@@": 54,
    "ary": 55,
    "stuff": 56,
    "Ama@@": 57,
    "z@@": 58,
    "on@@": 59,
    ".com": 60,
    "is": 61,
    "coming": 62,
    "&apos;ll": 63,
    "meet": 64,
    "middle": 65,
    "some": 66,
    "place": 67,
    "have": 68,
    "classi@@": 69,
    "c": 70,
    "thing": 71,
    "you": 72,
    "which": 73,
    "publ@@": 74,
    "ishing": 75,
    "system": 76,
    "working": 77,
    "par@@": 78,
    "alle@@": 79,
    "l": 80,
    "program": 81,
    "do": 82,
    "works": 83,
    "but": 84,
    "lo@@": 85,
    "an@@": 86,
    "ing": 87,
    "them": 88,
    "exactly": 89,
    "what": 90,
    "means": 91,
    "&apos;m": 92,
    "not": 93,
    "quite": 94,
    "sure": 95,
    "anyway": 96,
    "Boston": 97,
    "P@@": 98,
    "u@@": 99,
    "bli@@": 100,
    "Li@@": 101,
    "br@@": 102,
    "W@@": 103,
    "o@@": 104,
    "ods": 105,
    "H@@": 106,
    "ole": 107,
    "O@@": 108,
    "ce@@": 109,
    "ographic": 110,
    "Institute": 111,
    "few": 112,
    "other": 113,
    "aries": 114,
    "are": 115,
    "particip@@": 116,
    "ate": 117,
    "this": 118,
    "try": 119,
    "model": 120,
    "where": 121,
    "does": 122,
    "stop": 123,
    "bo@@": 124,
    "ok@@": 125,
    "store": 126,
    "take": 127,
    "over": 128,
    "possible": 129,
    "large": 130,
    "scale": 131,
    "also": 132,
    "back": 133,
    "micro@@": 134,
    "film": 135,
    "getting": 136,
    "online": 137,
    "can": 138,
    "10": 139,
    "c@@": 140,
    "ents": 141,
    "page": 142,
    "&apos;ve": 143,
    "got": 144,
    "2@@": 145,
    "50,000": 146,
    "coun@@": 147,
    "ting": 148,
    "projects": 149,
    "add": 150,
    "wanted": 151,
    "argue": 152,
    "within": 153,
    "our": 154,
    "gr@@": 155,
    "as@@": 156,
    "p": 157,
    "idea": 158,
    "taking": 159,
    "on": 160,
    "whole": 161,
    "ball": 162,
    "wa@@": 163,
    "x": 164,
    "big": 165,
    "deal": 166,
    "yes": 167,
    "costs": 168,
    "tens": 169,
    "millions": 170,
    "low": 171,
    "hundreds": 172,
    "one": 173,
    "time": 174,
    "shot": 175,
    "basically": 176,
    "history": 177,
    "prin@@": 178,
    "ted": 179,
    "liter@@": 180,
    "ature": 181,
    "then": 182,
    "business": 183,
    "issues": 184,
    "how": 185,
    "effectively": 186,
    "market": 187,
    "get": 188,
    "people": 189,
    "technologi@@": 190,
    "cally": 191,
    "law": 192,
    "wise": 193,
    "at": 194,
    "least": 195,
    "for": 196,
    "sug@@": 197,
    "gest": 198,
    "be": 199,
    "able": 200,
    "dar@@": 201,
    "n": 202,
    "let": 203,
    "go": 204,
    "audi@@": 205,
    "o": 206,
    "through": 207,
    "these": 208,
    "much": 209,
    "?": 210,
    "as": 211,
    "best": 212,
    "tell": 213,
    "three": 214,
    "million": 215,
    "dis@@": 216,
    "ks": 217,
    "having": 218,
    "been": 219,
    "published": 220,
    "7@@": 221,
    "8@@": 222,
    "s": 223,
    "long": 224,
    "playing": 225,
    "recor@@": 226,
    "ds": 227,
    "C@@": 228,
    "D@@": 229,
    "or": 230,
    "largest": 231,
    "ar@@": 232,
    "chi@@": 233,
    "ves": 234,
    "materials": 235,
    "sort": 236,
    "point": 237,
    "dollars": 238,
    "piece": 239,
    "k": 240,
    "put": 241,
    "if": 242,
    "doing": 243,
    "things": 244,
    "volu@@": 245,
    "me": 246,
    "found": 247,
    "rights": 248,
    "really": 249,
    "th@@": 250,
    "or@@": 251,
    "ny": 252,
    "fairly": 253,
    "hea@@": 254,
    "vi@@": 255,
    "ly": 256,
    "li@@": 257,
    "ti@@": 258,
    "g@@": 259,
    "ated": 260,
    "area": 261,
    "ni@@": 262,
    "ches": 263,
    "music": 264,
    "aren": 265,
    "&apos;t": 266,
    "ser@@": 267,
    "ved": 268,
    "terri@@": 269,
    "bly": 270,
    "by": 271,
    "commercial": 272,
    "make": 273,
    "available": 274,
    "off@@": 275,
    "ering": 276,
    "shel@@": 277,
    "f": 278,
    "space": 279,
    "N@@": 280,
    "et": 281,
    "United": 282,
    "States": 283,
    "doesn": 284,
    "cost": 285,
    "give": 286,
    "something": 287,
    "away": 288,
    "char@@": 289,
    "ity": 290,
    "public": 291,
    "p@@": 292,
    "ta@@": 293,
    "don@@": 294,
    "ation": 295,
    "except": 296,
    "bro@@": 297,
    "ke": 298,
    "video": 299,
    "your": 300,
    "gar@@": 301,
    "age": 302,
    "band": 303,
    "starts": 304,
    "ac@@": 305,
    "ess@@": 306,
    "ed": 307,
    "lose": 308,
    "gu@@": 309,
    "it@@": 310,
    "ars": 311,
    "house": 312,
    "any": 313,
    "sense": 314,
    "ered": 315,
    "un@@": 316,
    "limited": 317,
    "stor@@": 318,
    "b@@": 319,
    "and@@": 320,
    "wid@@": 321,
    "th": 322,
    "forever": 323,
    "free": 324,
    "anybody": 325,
    "has": 326,
    "share": 327,
    "bel@@": 328,
    "gs": 329,
    "lot": 330,
    "kers": 331,
    "rock": 332,
    "&apos;": 333,
    "roll@@": 334,
    "ers": 335,
    "had": 336,
    "tradi@@": 337,
    "tion": 338,
    "sharing": 339,
    "nobody": 340,
    "made": 341,
    "money": 342,
    "could": 343,
    "conc@@": 344,
    "ert": 345,
    "rec@@": 346,
    "ord@@": 347,
    "ings": 348,
    "started": 349,
    "Gr@@": 350,
    "at@@": 351,
    "eful": 352,
    "ead": 353,
    "ands": 354,
    "day": 355,
    "sig@@": 356,
    "they": 357,
    "per@@": 358,
    "mission": 359,
    "40": 360,
    "50": 361,
    "concer@@": 362,
    "ts": 363,
    "4@@": 364,
    "0,000": 365,
    "everything": 366,
    "ever": 367,
    "did": 368,
    "see": 369,
    "listen": 370,
    "material": 371,
    "pretty": 372,
    "colle@@": 373,
    "ctions": 374,
    "couple": 375,
    "hundred": 376,
    "thousand": 377,
    "em@@": 378,
    "growing": 379,
    "moving": 380,
    "images": 381,
    ":": 382,
    "the@@": 383,
    "ri@@": 384,
    "cal": 385,
    "rel@@": 386,
    "eas@@": 387,
    "es": 388,
    "many": 389,
    "15@@": 390,
    "200@@": 391,
    ",000": 392,
    "movies": 393,
    "meant": 394,
    "distribution": 395,
    "half": 396,
    "those": 397,
    "were": 398,
    "Indian": 399,
    "do@@": 400,
    "only": 401,
    "di@@": 402,
    "gi@@": 403,
    "zed": 404,
    "lots": 405,
    "types": 406,
    "haven": 407,
    "seen": 408,
    "light": 409,
    "val": 410,
    "fil@@": 411,
    "ms": 412,
    "political": 413,
    "am@@": 414,
    "eur": 415,
    "sorts": 416,
    "nee@@": 417,
    "ding": 418,
    "home": 419,
    "perman@@": 420,
    "ent": 421,
    "grown": 422,
    "popular": 423,
    "YouTube": 424,
    "ten@@": 425,
    "ded": 426,
    "towards": 427,
    "longer": 428,
    "term": 429,
    "re@@": 430,
    "use": 431,
    "new": 432,
    "great": 433,
    "fun": 434,
    "television": 435,
    "comes": 436,
    "bit": 437,
    "larger": 438,
    "20": 439,
    "chan@@": 440,
    "n@@": 441,
    "els": 442,
    "24": 443,
    "hours": 444,
    "biggest": 445,
    "Ti@@": 446,
    "V@@": 447,
    "box": 448,
    "pet@@": 449,
    "ab@@": 450,
    "te": 451,
    "far": 452,
    "worldwide": 453,
    "Russi@@": 454,
    "an": 455,
    "Chinese": 456,
    "Japanese": 457,
    "I@@": 458,
    "ra@@": 459,
    "q@@": 460,
    "i": 461,
    "Al": 462,
    "J@@": 463,
    "az@@": 464,
    "e@@": 465,
    "era": 466,
    "B@@": 467,
    "BC": 468,
    "N": 469,
    "A@@": 470,
    "S": 471,
    "week": 472,
    "mostly": 473,
    "reasons": 474,
    "9": 475,
    "/": 476,
    "11": 477,
    "2001": 478,
    "was": 479,
    "saying": 480,
    "Pal@@": 481,
    "est@@": 482,
    "ini@@": 483,
    "ans": 484,
    "dan@@": 485,
    "cing": 486,
    "streets": 487,
    "look": 488,
    "find": 489,
    "critical": 490,
    "thinking": 491,
    "without": 492,
    "being": 493,
    "quote": 494,
    "compare": 495,
    "happened": 496,
    "past": 497,
    "dre@@": 498,
    "ad@@": 499,
    "fully": 500,
    "quot@@": 501,
    "Ste@@": 502,
    "war@@": 503,
    "t": 504,
    "who": 505,
    "f@@": 506,
    "ul@@": 507,
    "ous": 508,
    "job": 509,
    "would": 510,
    "15": 511,
    "per": 512,
    "hour": 513,
    "100": 514,
    "150": 515,
    "cell@@": 516,
    "id": 517,
    "in@@": 518,
    "expen@@": 519,
    "si@@": 520,
    "vely": 521,
    "100,000": 522,
    "pieces": 523,
    "software": 524,
    "tles": 525,
    "legal": 526,
    "brea@@": 527,
    "king": 528,
    "copy": 529,
    "prote@@": 530,
    "worked": 531,
    "still": 532,
    "real": 533,
    "problems": 534,
    "Washington": 535,
    "known": 536,
    "World": 537,
    "Wi@@": 538,
    "de": 539,
    "Web": 540,
    "ving": 541,
    "since": 542,
    "199@@": 543,
    "6": 544,
    "s@@": 545,
    "ap@@": 546,
    "every": 547,
    "website": 548,
    "pages": 549,
    "months": 550,
    "actually": 551,
    "pi@@": 552,
    "Alex@@": 553,
    "Internet": 554,
    "ates": 555,
    "ction": 556,
    "Ar@@": 557,
    "ve": 558,
    "along": 559,
    "last": 560,
    "years": 561,
    "fantastic": 562,
    "resource": 563,
    "Wa@@": 564,
    "M@@": 565,
    "ach@@": 566,
    "ine": 567,
    "old": 568,
    "we@@": 569,
    "sites": 570,
    "way": 571,
    "search": 572,
    "Go@@": 573,
    "og@@": 574,
    "le@@": 575,
    "different": 576,
    "versi@@": 577,
    "ons": 578,
    "looks": 579,
    "like": 580,
    "when": 581,
    "al@@": 582,
    "ph@@": 583,
    "ease": 584,
    "looked": 585,
    "Stanford": 586,
    "came": 587,
    "want": 588,
    "their": 589,
    "learn": 590,
    "version": 591,
    "probably": 592,
    "bur@@": 593,
    "don": 594,
    "picture": 595,
    "building": 596,
    "Am@@": 597,
    "ster@@": 598,
    "dam": 599,
    "should": 600,
    "San": 601,
    "An@@": 602,
    "F@@": 603,
    "au@@": 604,
    "lt": 605,
    "L@@": 606,
    "Francisco": 607,
    "loo@@": 608,
    "d": 609,
    "zone": 610,
    "Middle": 611,
    "East": 612,
    "...": 613,
    "he@@": 614,
    "d@@": 615,
    "ging": 616,
    "be@@": 617,
    "here": 618,
    "more": 619,
    "places": 620,
    "good": 621,
    "shape": 622,
    "social": 623,
    "question": 624,
    "digital": 625,
    "private": 626,
    "companies": 627,
    "vision": 628,
    "zation": 629,
    "cking": 630,
    "dom@@": 631,
    "ain": 632,
    "live": 633,
    "role": 634,
    "versus": 635,
    "forward": 636,
    "both": 637,
    "future": 638,
    "ben@@": 639,
    "ef@@": 640,
    "ited": 641,
    "universal": 642,
    "access": 643,
    "knowledge": 644,
    "greatest": 645,
    "achie@@": 646,
    "v@@": 647,
    "ements": 648,
    "human@@": 649,
    "man": 650,
    "moon": 651,
    "G@@": 652,
    "ut@@": 653,
    "en@@": 654,
    "berg": 655,
    "Bi@@": 656,
    "ble": 657,
    "mem@@": 658,
    "ber@@": 659,
    "m@@": 660,
    "ill@@": 661,
    "nia": 662,
    "said": 663,
    "before": 664,
    "end": 665,
    "with": 666,
    "car@@": 667,
    "above": 668,
    "door": 669,
    "Car@@": 670,
    "ne@@": 671,
    "ie": 672,
    "capit@@": 673,
    "alists": 674,
    "country": 675,
    "his": 676,
    "leg@@": 677,
    "acy": 678,
    "&quot;": 679,
    "ree": 680,
    "Pe@@": 681,
    "op@@": 682,
    "le": 683,
    "thank": 684,
    "w@@": 685,
    "ster": 686,
    "K@@": 687,
    "ah@@": 688,
    "truly": 689,
    "huge": 690,
    "book": 691,
    "movie": 692,
    "strat@@": 693,
    "web": 694,
    "It": 695,
    "unless": 696,
    "someone": 697,
    "else": 698,
    "gets": 699,
    "first": 700,
    "imagine": 701,
    "will": 702,
    "gift": 703,
    "&apos;d": 704,
    "mind": 705,
    "too": 706,
    "size": 707,
    "gol@@": 708,
    "wr@@": 709,
    "apped": 710,
    "show": 711,
    "inside": 712,
    "incredible": 713,
    "bring": 714,
    "family": 715,
    "together": 716,
    "feel": 717,
    "loved": 718,
    "appreci@@": 719,
    "never": 720,
    "connect": 721,
    "friends": 722,
    "acqu@@": 723,
    "a@@": 724,
    "tan@@": 725,
    "ces": 726,
    "heard": 727,
    "mi@@": 728,
    "ration": 729,
    "over@@": 730,
    "wh@@": 731,
    "el@@": 732,
    "m": 733,
    "ali@@": 734,
    "bra@@": 735,
    "most": 736,
    "important": 737,
    "life": 738,
    "define": 739,
    "spiri@@": 740,
    "tu@@": 741,
    "ality": 742,
    "fa@@": 743,
    "ith": 744,
    "understanding": 745,
    "trust": 746,
    "body": 747,
    "uns@@": 748,
    "ur@@": 749,
    "passed": 750,
    "vit@@": 751,
    "energy": 752,
    "exp@@": 753,
    "voc@@": 754,
    "health@@": 755,
    "ier": 756,
    "fest@@": 757,
    "yle": 758,
    "eight": 759,
    "absolutely": 760,
    "nothing": 761,
    "eat": 762,
    "t@@": 763,
    "less": 764,
    "our@@": 765,
    "met": 766,
    "me@@": 767,
    "als": 768,
    "flo@@": 769,
    "wers": 770,
    "arri@@": 771,
    "tru@@": 772,
    "ck@@": 773,
    "load": 774,
    "say": 775,
    "You": 776,
    "work": 777,
    "done": 778,
    "life@@": 779,
    "supply": 780,
    "drugs": 781,
    "ch@@": 782,
    "all@@": 783,
    "eng@@": 784,
    "inspired": 785,
    "motiv@@": 786,
    "hum@@": 787,
    "bled": 788,
    "meaning": 789,
    "peace": 790,
    "health": 791,
    "happiness": 792,
    "r@@": 793,
    "van@@": 794,
    "price": 795,
    "$": 796,
    "5@@": 797,
    "know": 798,
    "dying": 799,
    "zon": 800,
    "carry": 801,
    "Apple": 802,
    "waiting": 803,
    "list": 804,
    "likely": 805,
    "five": 806,
    "ago": 807,
    "em": 808,
    "brain": 809,
    "tumor": 810,
    "h@@": 811,
    "bl@@": 812,
    "ast@@": 813,
    "om@@": 814,
    "ke@@": 815,
    "eps": 816,
    "giving": 817,
    "while": 818,
    "okay": 819,
    "wouldn": 820,
    "wish": 821,
    "change": 822,
    "my": 823,
    "experience": 824,
    "pro@@": 825,
    "fo@@": 826,
    "und@@": 827,
    "tered": 828,
    "ways": 829,
    "didn": 830,
    "expect": 831,
    "shared": 832,
    "next": 833,
    "expected": 834,
    "certain": 835,
    "consider": 836,
    "may": 837,
    "St@@": 838,
    "ey": 839,
    "mer": 840,
    "survi@@": 841,
    "personal": 842,
    "3": 843,
    "minute": 844,
    "shows": 845,
    "fri@@": 846,
    "gh@@": 847,
    "tening": 848,
    "trau@@": 849,
    "matic": 850,
    "cos@@": 851,
    "tly": 852,
    "turn": 853,
    "pri@@": 854,
    "eless": 855,
    "love": 856,
    "challenge": 857,
    "saving": 858,
    "Earth": 859,
    "trouble": 860,
    "enter@@": 861,
    "6@@": 862,
    "X": 863,
    "x@@": 864,
    "major": 865,
    "extin@@": 866,
    "planet": 867,
    "often": 868,
    "wonder@@": 869,
    "Or@@": 870,
    "gan@@": 871,
    "i@@": 872,
    "is@@": 873,
    "otherwise": 874,
    "U@@": 875,
    "h": 876,
    "Oh": 877,
    "organ@@": 878,
    "ism": 879,
    "vote": 880,
    "vot@@": 881,
    "off": 882,
    "oc@@": 883,
    "curr@@": 884,
    "present": 885,
    "su@@": 886,
    "ite": 887,
    "six": 888,
    "my@@": 889,
    "col@@": 890,
    "gical": 891,
    "solutions": 892,
    "using": 893,
    "ung@@": 894,
    "based": 895,
    "cel@@": 896,
    "ium": 897,
    "uses": 898,
    "land@@": 899,
    "sc@@": 900,
    "hol@@": 901,
    "so@@": 902,
    "ils": 903,
    "extremely": 904,
    "aci@@": 905,
    "3@@": 906,
    "times": 907,
    "its": 908,
    "mass": 909,
    "molecular": 910,
    "assem@@": 911,
    "nature": 912,
    "soil": 913,
    "ma@@": 914,
    "ci@@": 915,
    "generate": 916,
    "us": 917,
    "across": 918,
    "asses": 919,
    "discovered": 920,
    "mul@@": 921,
    "ti": 922,
    "direc@@": 923,
    "tional": 924,
    "trans@@": 925,
    "fer": 926,
    "nutri@@": 927,
    "between": 928,
    "plants": 929,
    "cy@@": 930,
    "mother": 931,
    "der": 932,
    "bir@@": 933,
    "ch": 934,
    "trees": 935,
    "cks": 936,
    "ou@@": 937,
    "gl@@": 938,
    "fir@@": 939,
    "du@@": 940,
    "st@@": 941,
    "y": 942,
    "S@@": 943,
    "urch": 944,
    "growth": 945,
    "forest": 946,
    "pat@@": 947,
    "tic": 948,
    "American": 949,
    "because": 950,
    "familiar": 951,
    "Por@@": 952,
    "to@@": 953,
    "ello": 954,
    "mus@@": 955,
    "rooms": 956,
    "rank@@": 957,
    "face": 958,
    "ob@@": 959,
    "stac@@": 960,
    "men@@": 961,
    "somebody": 962,
    "immediately": 963,
    "magic": 964,
    "eyes": 965,
    "ze": 966,
    "little": 967,
    "crazy": 968,
    "hope": 969,
    "er@@": 970,
    "ce": 971,
    "pre@@": 972,
    "ju@@": 973,
    "group": 974,
    "call": 975,
    "ho@@": 976,
    "bia": 977,
    "ir@@": 978,
    "rational": 979,
    "fear": 980,
    "unk@@": 981,
    "no@@": 982,
    "wn": 983,
    "fast": 984,
    "21": 985,
    "23": 986,
    "25": 987,
    "produce": 988,
    "strong": 989,
    "anti@@": 990,
    "bio@@": 991,
    "tics": 992,
    "fact": 993,
    "clos@@": 994,
    "ely": 995,
    "related": 996,
    "than": 997,
    "k@@": 998,
    "ing@@": 999,
    "dom": 1000,
    "eu@@": 1001,
    "yo@@": 1002,
    "biolog@@": 1003,
    "ists": 1004,
    "paper": 1005,
    "ec@@": 1006,
    "tho@@": 1007,
    "ta": 1008,
    "super": 1009,
    "jo@@": 1010,
    "ins": 1011,
    "anim@@": 1012,
    "common": 1013,
    "same": 1014,
    "pa@@": 1015,
    "gens": 1016,
    "ro@@": 1017,
    "bacteria": 1018,
    "come": 1019,
    "room": 1020,
    "after": 1021,
    "spor@@": 1022,
    "pose": 1023,
    "sequence": 1024,
    "bes": 1025,
    "occu@@": 1026,
    "r": 1027,
    "tting": 1028,
    "essential": 1029,
    "rise": 1030,
    "create": 1031,
    "de@@": 1032,
    "fields": 1033,
    "feed": 1034,
    "ating": 1035,
    "ger@@": 1036,
    "min@@": 1037,
    "forms": 1038,
    "goes": 1039,
    "under@@": 1040,
    "ground": 1041,
    "single": 1042,
    "cu@@": 1043,
    "bi@@": 1044,
    "miles": 1045,
    "cells": 1046,
    "foot": 1047,
    "co@@": 1048,
    "vering": 1049,
    "appro@@": 1050,
    "xim@@": 1051,
    "ately": 1052,
    "300": 1053,
    "phot@@": 1054,
    "ic@@": 1055,
    "grap@@": 1056,
    "ick": 1057,
    "R@@": 1058,
    "Pat@@": 1059,
    "ck": 1060,
    "notice": 1061,
    "gro@@": 1062,
    "ws": 1063,
    "con@@": 1064,
    "qu@@": 1065,
    "ter@@": 1066,
    "rit@@": 1067,
    "ory": 1068,
    "begins": 1069,
    "net": 1070,
    "elec@@": 1071,
    "tr@@": 1072,
    "micros@@": 1073,
    "ist": 1074,
    "thousands": 1075,
    "star@@": 1076,
    "realize": 1077,
    "tra@@": 1078,
    "bran@@": 1079,
    "ex@@": 1080,
    "hal@@": 1081,
    "e": 1082,
    "carbon": 1083,
    "oxi@@": 1084,
    "oxygen": 1085,
    "essentially": 1086,
    "alized": 1087,
    "stom@@": 1088,
    "l@@": 1089,
    "concept": 1090,
    "exten@@": 1091,
    "neuro@@": 1092,
    "avi@@": 1093,
    "ties": 1094,
    "cr@@": 1095,
    "form": 1096,
    "absor@@": 1097,
    "b": 1098,
    "water": 1099,
    "ells": 1100,
    "al": 1101,
    "communities": 1102,
    "begin": 1103,
    "spon@@": 1104,
    "res@@": 1105,
    "osion": 1106,
    "ets": 1107,
    "universe": 1108,
    "gives": 1109,
    "pl@@": 1110,
    "organisms": 1111,
    "posed": 1112,
    "early": 1113,
    "0s": 1114,
    "natural": 1115,
    "highly": 1116,
    "ched": 1117,
    "broken": 1118,
    "quickly": 1119,
    "des": 1120,
    "cros@@": 1121,
    "sing": 1122,
    "engineers": 1123,
    "maybe": 1124,
    "hot": 1125,
    "points": 1126,
    "alternative": 1127,
    "path@@": 1128,
    "information": 1129,
    "sen@@": 1130,
    "knows": 1131,
    "walk": 1132,
    "aps": 1133,
    "after@@": 1134,
    "math": 1135,
    "foot@@": 1136,
    "steps": 1137,
    "trying": 1138,
    "gra@@": 1139,
    "believe": 1140,
    "inven@@": 1141,
    "computer": 1142,
    "ev@@": 1143,
    "itable": 1144,
    "previ@@": 1145,
    "ously": 1146,
    "ven": 1147,
    "ologi@@": 1148,
    "successful": 1149,
    "invented": 1150,
    "own": 1151,
    "benefit": 1152,
    "top": 1153,
    "allo@@": 1154,
    "resources": 1155,
    "order": 1156,
    "protect": 1157,
    "osp@@": 1158,
    "dark": 1159,
    "matter": 1160,
    "ial": 1161,
    "arch@@": 1162,
    "et@@": 1163,
    "ype": 1164,
    ";": 1165,
    "becomes": 1166,
    "become": 1167,
    "str@@": 1168,
    "cha@@": 1169,
    "network": 1170,
    "para@@": 1171,
    "dig@@": 1172,
    "throughout": 1173,
    "land": 1174,
    "1.@@": 1175,
    "billion": 1176,
    "followed": 1177,
    "several": 1178,
    "later": 1179,
    "produ@@": 1180,
    "enz@@": 1181,
    "mes": 1182,
    "po@@": 1183,
    "mar@@": 1184,
    "bing": 1185,
    "cal@@": 1186,
    "um": 1187,
    "forming": 1188,
    "makes": 1189,
    "cru@@": 1190,
    "step": 1191,
    "generation": 1192,
    "molecules": 1193,
    "ined": 1194,
    "se@@": 1195,
    "ques@@": 1196,
    "ter": 1197,
    "formed": 1198,
    "taken": 1199,
    "mat@@": 1200,
    "18@@": 1201,
    "photograph": 1202,
    "Fran@@": 1203,
    "z": 1204,
    "Hu@@": 1205,
    "ber": 1206,
    "195@@": 1207,
    "Sau@@": 1208,
    "di": 1209,
    "Arab@@": 1210,
    "ia": 1211,
    "exis@@": 1212,
    "called": 1213,
    "Pro@@": 1214,
    "ot@@": 1215,
    "ax@@": 1216,
    "ites": 1217,
    "la@@": 1218,
    "ying": 1219,
    "down": 1220,
    "feet": 1221,
    "est": 1222,
    "Dr.": 1223,
    "Bo@@": 1224,
    "University": 1225,
    "Chicago": 1226,
    "article": 1227,
    "nal": 1228,
    "Ge@@": 1229,
    "ology": 1230,
    "year": 1231,
    "determin@@": 1232,
    "giant": 1233,
    "events": 1234,
    "65": 1235,
    "stero@@": 1236,
    "impact": 1237,
    "stru@@": 1238,
    "amount": 1239,
    "j@@": 1240,
    "son@@": 1241,
    "atmosphere": 1242,
    "sun@@": 1243,
    "cut": 1244,
    "her@@": 1245,
    "red": 1246,
    "need": 1247,
    "recently": 1248,
    "Einstein": 1249,
    "radi@@": 1250,
    "source": 1251,
    "pros@@": 1252,
    "pect": 1253,
    "planets": 1254,
    "for@@": 1255,
    "gone": 1256,
    "concl@@": 1257,
    "usion": 1258,
    "E@@": 1259,
    "ern": 1260,
    "reg@@": 1261,
    "couldn": 1262,
    "mis@@": 1263,
    "2,@@": 1264,
    "200": 1265,
    "2,000": 1266,
    "cell": 1267,
    "wall": 1268,
    "yet": 1269,
    "whereas": 1270,
    "skin": 1271,
    "yers": 1272,
    "conditions": 1273,
    "sts": 1274,
    "such": 1275,
    "fer@@": 1276,
    "break": 1277,
    "involved": 1278,
    "experiments": 1279,
    "helping": 1280,
    "save": 1281,
    "att@@": 1282,
    "abor@@": 1283,
    "ories": 1284,
    "ell@@": 1285,
    "ham": 1286,
    "four": 1287,
    "pil@@": 1288,
    "es@@": 1289,
    "el": 1290,
    "waste": 1291,
    "control": 1292,
    "treated": 1293,
    "cul@@": 1294,
    "bs": 1295,
    "oil": 1296,
    "producing": 1297,
    "ases": 1298,
    "hydro@@": 1299,
    "gen": 1300,
    "bon@@": 1301,
    "hold": 1302,
    "turned": 1303,
    "weeks": 1304,
    "tar@@": 1305,
    "ps": 1306,
    "moved": 1307,
    "dead": 1308,
    "ky": 1309,
    "covered": 1310,
    "pounds": 1311,
    "color": 1312,
    "changed": 1313,
    "man@@": 1314,
    "hy@@": 1315,
    "dr@@": 1316,
    "happy": 1317,
    "showing": 1318,
    "ep@@": 1319,
    "attra@@": 1320,
    "ct": 1321,
    "insects": 1322,
    "eg@@": 1323,
    "became": 1324,
    "lar@@": 1325,
    "birds": 1326,
    "bringing": 1327,
    "eds": 1328,
    "H": 1329,
    "atic": 1330,
    "went": 1331,
    "10,000": 1332,
    "parts": 1333,
    "image": 1334,
    "entire": 1335,
    "green": 1336,
    "species": 1337,
    "ard": 1338,
    "open": 1339,
    "biological": 1340,
    "sac@@": 1341,
    "er": 1342,
    "sp@@": 1343,
    "putting": 1344,
    "blo@@": 1345,
    "down@@": 1346,
    "stream": 1347,
    "farm": 1348,
    "factory": 1349,
    "chemical": 1350,
    "tox@@": 1351,
    "leads": 1352,
    "hab@@": 1353,
    "itat": 1354,
    "tor@@": 1355,
    "set": 1356,
    "site": 1357,
    "Mas@@": 1358,
    "Coun@@": 1359,
    "ty": 1360,
    "drama@@": 1361,
    "cre@@": 1362,
    "ase": 1363,
    "graph": 1364,
    "log@@": 1365,
    "ari@@": 1366,
    "mic": 1367,
    "ei@@": 1368,
    "power": 1369,
    "ies": 1370,
    "third": 1371,
    "around": 1372,
    "1,000": 1373,
    "8": 1374,
    "2": 1375,
    "reduc@@": 1376,
    "imp@@": 1377,
    "lications": 1378,
    "conserv@@": 1379,
    "ative": 1380,
    "meth@@": 1381,
    "od": 1382,
    "te@@": 1383,
    "particular": 1384,
    "dra@@": 1385,
    "interest": 1386,
    "wife": 1387,
    "Du@@": 1388,
    "sis": 1389,
    "cl@@": 1390,
    "usive": 1391,
    "Di@@": 1392,
    "os@@": 1393,
    "ori@@": 1394,
    "described": 1395,
    ".@@": 1396,
    "D": 1397,
    "treatment": 1398,
    "against": 1399,
    "consumption": 1400,
    "State": 1401,
    "nor@@": 1402,
    "thern": 1403,
    "California": 1404,
    "British": 1405,
    "Col@@": 1406,
    "um@@": 1407,
    "thought": 1408,
    "Europe": 1409,
    "seem": 1410,
    "closer": 1411,
    "team": 1412,
    "experts": 1413,
    "ample": 1414,
    "culture": 1415,
    "pres@@": 1416,
    "genome": 1417,
    "human": 1418,
    "U.S.": 1419,
    "se": 1420,
    "De@@": 1421,
    "partment": 1422,
    "Shi@@": 1423,
    "sub@@": 1424,
    "mit@@": 1425,
    "sam@@": 1426,
    "ples": 1427,
    "iled": 1428,
    "har@@": 1429,
    "ves@@": 1430,
    "extra@@": 1431,
    "ular": 1432,
    "met@@": 1433,
    "abo@@": 1434,
    "tes": 1435,
    "recei@@": 1436,
    "results": 1437,
    "stra@@": 1438,
    "active": 1439,
    "viruses": 1440,
    "small@@": 1441,
    "exper@@": 1442,
    "states": 1443,
    "com@@": 1444,
    "selec@@": 1445,
    "tivity": 1446,
    "greater": 1447,
    "considered": 1448,
    "range": 1449,
    "press": 1450,
    "read": 1451,
    "Google": 1452,
    "g": 1453,
    "inter@@": 1454,
    "view": 1455,
    "encoura@@": 1456,
    "ged": 1457,
    "natur@@": 1458,
    "ally": 1459,
    "flu": 1460,
    "am": 1461,
    "numbers": 1462,
    "saw": 1463,
    "20@@": 1464,
    "compared": 1465,
    "contro@@": 1466,
    "ls": 1467,
    "ordin@@": 1468,
    "arily": 1469,
    "high": 1470,
    "activity": 1471,
    "window": 1472,
    "ure": 1473,
    "tical": 1474,
    "tried": 1475,
    "A": 1476,
    "1": 1477,
    "B": 1478,
    "combin@@": 1479,
    "argument": 1480,
    "national": 1481,
    "fen@@": 1482,
    "interested": 1483,
    "ent@@": 1484,
    "gen@@": 1485,
    "ic": 1486,
    "kill": 1487,
    "destro@@": 1488,
    "yed": 1489,
    "enter": 1490,
    "ants": 1491,
    "PA": 1492,
    "hom@@": 1493,
    "studies": 1494,
    "hi@@": 1495,
    "zi@@": 1496,
    "stopped": 1497,
    "mor@@": 1498,
    "non": 1499,
    "industry": 1500,
    "spent": 1501,
    "specifically": 1502,
    "ba@@": 1503,
    "sta@@": 1504,
    "tions": 1505,
    "prevent": 1506,
    "eating": 1507,
    "stup@@": 1508,
    "avoid": 1509,
    "close": 1510,
    "cultures": 1511,
    "daughter": 1512,
    "Bar@@": 1513,
    "ol@@": 1514,
    "bunch": 1515,
    "making": 1516,
    "cted": 1517,
    "no": 1518,
    "gave": 1519,
    "een": 1520,
    "sa@@": 1521,
    "ust": 1522,
    "what@@": 1523,
    "del@@": 1524,
    "dance": 1525,
    "dinner": 1526,
    "death": 1527,
    "consum@@": 1528,
    "fied": 1529,
    "pop@@": 1530,
    "head": 1531,
    "ulation": 1532,
    "pe@@": 1533,
    "inv@@": 1534,
    "asi@@": 1535,
    "near": 1536,
    "solution": 1537,
    "rein@@": 1538,
    "fire": 1539,
    "cts": 1540,
    "beh@@": 1541,
    "ste@@": 1542,
    "second": 1543,
    "ander": 1544,
    "Gra@@": 1545,
    "ell": 1546,
    "vers": 1547,
    "rup@@": 1548,
    "tive": 1549,
    "technology": 1550,
    "told": 1551,
    "tives": 1552,
    "tici@@": 1553,
    "wit@@": 1554,
    "essed": 1555,
    "totally": 1556,
    "amp": 1557,
    "industri@@": 1558,
    "fly": 1559,
    "Ph@@": 1560,
    "students": 1561,
    "under": 1562,
    "supp@@": 1563,
    "ition": 1564,
    "rep@@": 1565,
    "fe": 1566,
    "needed": 1567,
    "deli@@": 1568,
    "gon@@": 1569,
    "na": 1570,
    "TED": 1571,
    "conference": 1572,
    "cor@@": 1573,
    "end@@": 1574,
    "mo@@": 1575,
    "ther@@": 1576,
    "tree": 1577,
    "potenti@@": 1578,
    "board": 1579,
    "vent": 1580,
    "ological": 1581,
    "code": 1582,
    "specific": 1583,
    "join": 1584,
    "satelli@@": 1585,
    "ima@@": 1586,
    "systems": 1587,
    "Vir@@": 1588,
    "tual": 1589,
    "xes": 1590,
    "shoes": 1591,
    "developed": 1592,
    "fu@@": 1593,
    "community": 1594,
    "ns": 1595,
    "squ@@": 1596,
    "ash": 1597,
    "oni@@": 1598,
    "took": 1599,
    "tain@@": 1600,
    "ended": 1601,
    "arden": 1602,
    "Eric": 1603,
    "sen": 1604,
    "help": 1605,
    "ern@@": 1606,
    "with@@": 1607,
    "bank": 1608,
    "population": 1609,
    "sh@@": 1610,
    "ut": 1611,
    "watch": 1612,
    "happens": 1613,
    "importantly": 1614,
    "conver@@": 1615,
    "ose": 1616,
    "address": 1617,
    "crisis": 1618,
    "ol": 1619,
    "gener@@": 1620,
    "eth@@": 1621,
    "medi@@": 1622,
    "gain": 1623,
    "benefits": 1624,
    "already": 1625,
    "intelligent": 1626,
    "econ@@": 1627,
    "build": 1628,
    "ban@@": 1629,
    "ren@@": 1630,
    "w": 1631,
    "aging": 1632,
    "Paul": 1633,
    "ologist": 1634,
    "lis@@": 1635,
    "cle@@": 1636,
    "poll@@": 1637,
    "inse@@": 1638,
    "tre@@": 1639,
    "even": 1640,
    "&amp;": 1641,
    "=": 1642,
    "tt@@": 1643,
    "spea@@": 1644,
    "_": 1645,
    "ank": 1646,
    "gt": 1647,
    "distin@@": 1648,
    "pleasure": 1649,
    "living": 1650,
    "course": 1651,
    "lived": 1652,
    "wonderful": 1653,
    "hopefully": 1654,
    "zz@@": 1655,
    "whe@@": 1656,
    "ough": 1657,
    "mil@@": 1658,
    "go@@": 1659,
    "ats": 1660,
    "che@@": 1661,
    "ese": 1662,
    "takes": 1663,
    "minutes": 1664,
    "pick": 1665,
    "phone": 1666,
    "Hey": 1667,
    "deliver": 1668,
    "re": 1669,
    "entirely": 1670,
    "steel": 1671,
    "glass": 1672,
    "underneath": 1673,
    "rain@@": 1674,
    "ach": 1675,
    "coral": 1676,
    "ef": 1677,
    "desert": 1678,
    "grow": 1679,
    "-": 1680,
    "designing": 1681,
    "ask": 1682,
    "ourselves": 1683,
    "basic": 1684,
    "questions": 1685,
    "mean": 1686,
    "guess": 1687,
    "decided": 1688,
    "eri@@": 1689,
    "closed": 1690,
    "tically": 1691,
    "40@@": 1692,
    "0@@": 1693,
    "T@@": 1694,
    "Mo@@": 1695,
    "fel@@": 1696,
    "John": 1697,
    "ll@@": 1698,
    "en": 1699,
    "walked": 1700,
    "spend": 1701,
    "days": 1702,
    "animals": 1703,
    "keep": 1704,
    "him": 1705,
    "alive": 1706,
    "doctors": 1707,
    "incredibly": 1708,
    "concerned": 1709,
    "he": 1710,
    "cum@@": 1711,
    "ful": 1712,
    "cho@@": 1713,
    "ked": 1714,
    "none": 1715,
    "gas": 1716,
    "finally": 1717,
    "built": 1718,
    "mal@@": 1719,
    "evolved": 1720,
    "plan@@": 1721,
    "bot@@": 1722,
    "tle": 1723,
    "survive": 1724,
    "somewhere": 1725,
    "Mars": 1726,
    "instance": 1727,
    "understand": 1728,
    "baby": 1729,
    "den": 1730,
    "vo@@": 1731,
    "happen": 1732,
    "fix": 1733,
    "men": 1734,
    "women": 1735,
    "beautiful": 1736,
    "ests": 1737,
    "ocean": 1738,
    "val@@": 1739,
    "air": 1740,
    "hand@@": 1741,
    "air@@": 1742,
    "craft": 1743,
    "rier": 1744,
    "labor@@": 1745,
    "agriculture": 1746,
    "organic": 1747,
    "completely": 1748,
    "everybody": 1749,
    "seven": 1750,
    "moment": 1751,
    "part": 1752,
    "abstra@@": 1753,
    "rather": 1754,
    "literally": 1755,
    "CO2": 1756,
    "swe@@": 1757,
    "pot@@": 1758,
    "oes": 1759,
    "awful": 1760,
    "ange": 1761,
    "again": 1762,
    "myself": 1763,
    "strange": 1764,
    "bizar@@": 1765,
    "however": 1766,
    "wasn": 1767,
    "losing": 1768,
    "knew": 1769,
    "ord": 1770,
    "biom@@": 1771,
    "ass": 1772,
    "bas@@": 1773,
    "ement": 1774,
    "green@@": 1775,
    "faster": 1776,
    "test": 1777,
    "atom@@": 1778,
    "ek": 1779,
    "lost": 1780,
    "tons": 1781,
    "ue": 1782,
    "percent": 1783,
    "14@@": 1784,
    "od@@": 1785,
    "ness": 1786,
    "sleep": 1787,
    "night": 1788,
    "wake": 1789,
    "gas@@": 1790,
    "ping": 1791,
    "bre@@": 1792,
    "ath": 1793,
    "blood": 1794,
    "chemistry": 1795,
    "kes": 1796,
    "tat@@": 1797,
    "outside": 1798,
    "media": 1799,
    "sound": 1800,
    "No": 1801,
    "fine": 1802,
    "doctor": 1803,
    "person": 1804,
    "sus@@": 1805,
    "line": 1806,
    "fig@@": 1807,
    "ures": 1808,
    "might": 1809,
    "support": 1810,
    "fail@@": 1811,
    "fying": 1812,
    "lock": 1813,
    "bad": 1814,
    "though": 1815,
    "anymore": 1816,
    "!": 1817,
    "hand": 1818,
    "scientific": 1819,
    "gold": 1820,
    "project": 1821,
    "rank": 1822,
    "tool": 1823,
    "indeed": 1824,
    "simple": 1825,
    "comp@@": 1826,
    "ost": 1827,
    "ght@@": 1828,
    "although": 1829,
    "failure": 1830,
    "emerg@@": 1831,
    "serious": 1832,
    "subject": 1833,
    "yeah": 1834,
    "fix@@": 1835,
    "nu@@": 1836,
    "thri@@": 1837,
    "seeing": 1838,
    "ran": 1839,
    "ink": 1840,
    "ha@@": 1841,
    "spra@@": 1842,
    "arm": 1843,
    "ant": 1844,
    "kinds": 1845,
    "clean": 1846,
    "boy": 1847,
    "touch": 1848,
    "food": 1849,
    "recognize": 1850,
    "names": 1851,
    "stand": 1852,
    "les": 1853,
    "ops": 1854,
    "reading": 1855,
    "must": 1856,
    "slowly": 1857,
    "track": 1858,
    "understood": 1859,
    "everyday": 1860,
    "vis@@": 1861,
    "cer@@": 1862,
    "Par@@": 1863,
    "ag@@": 1864,
    "Sp@@": 1865,
    "ace": 1866,
    "ment": 1867,
    "Cor@@": 1868,
    "por@@": 1869,
    "figure": 1870,
    "small": 1871,
    "sent": 1872,
    "onto": 1873,
    "ir": 1874,
    "Sta@@": 1875,
    "Inter@@": 1876,
    "16": 1877,
    "managed": 1878,
    "complete": 1879,
    "multiple": 1880,
    "cles": 1881,
    "push@@": 1882,
    "vel@@": 1883,
    "ope": 1884,
    "proud": 1885,
    "announ@@": 1886,
    "ak": 1887,
    "develop": 1888,
    "rap@@": 1889,
    "cir@@": 1890,
    "plant": 1891,
    "result": 1892,
    "model@@": 1893,
    "Africa": 1894,
    "mer@@": 1895,
    "thiop@@": 1896,
    "ish@@": 1897,
    "ingly": 1898,
    "dry": 1899,
    "company": 1900,
    "sand": 1901,
    "cro@@": 1902,
    "alt": 1903,
    "treat": 1904,
    "case": 1905,
    "il@@": 1906,
    "tation": 1907,
    "provi@@": 1908,
    "wood": 1909,
    "hon@@": 1910,
    "leaves": 1911,
    "mp": 1912,
    "far@@": 1913,
    "ge": 1914,
    "earth": 1915,
    "environmental": 1916,
    "amoun@@": 1917,
    "ute": 1918,
    "neighb@@": 1919,
    "ors": 1920,
    "each": 1921,
    "pon@@": 1922,
    "eff@@": 1923,
    "lu@@": 1924,
    "turning": 1925,
    "ution": 1926,
    "ance": 1927,
    "created": 1928,
    "industrial": 1929,
    "ecos@@": 1930,
    "ystem": 1931,
    "dit": 1932,
    "U.@@": 1933,
    "How": 1934,
    "draw": 1935,
    "boun@@": 1936,
    "actions": 1937,
    "context": 1938,
    "today": 1939,
    "transformation": 1940,
    "whether": 1941,
    "inten@@": 1942,
    "tion@@": 1943,
    "designed": 1944,
    "areas": 1945,
    "massive": 1946,
    "wis@@": 1947,
    "clou@@": 1948,
    "process": 1949,
    "society": 1950,
    "nur@@": 1951,
    "ture": 1952,
    "happening": 1953,
    "career": 1954,
    "possibly": 1955,
    "story": 1956,
    "back@@": 1957,
    "bought": 1958,
    "property": 1959,
    "puts": 1960,
    "morning": 1961,
    "lea@@": 1962,
    "wer": 1963,
    "thro@@": 1964,
    "type": 1965,
    "thetic": 1966,
    "comfortable": 1967,
    "iness": 1968,
    "thre@@": 1969,
    "fall": 1970,
    "top@@": 1971,
    "spring": 1972,
    "fl@@": 1973,
    "ush": 1974,
    "ian": 1975,
    "Tu@@": 1976,
    "son": 1977,
    "revol@@": 1978,
    "throw": 1979,
    "In@@": 1980,
    "stri@@": 1981,
    "Revolution": 1982,
    "given": 1983,
    "ability": 1984,
    "run": 1985,
    "choose": 1986,
    "interact": 1987,
    "perhaps": 1988,
    "diffic@@": 1989,
    "conne@@": 1990,
    "cting": 1991,
    "deep": 1992,
    "sitting": 1993,
    "ga@@": 1994,
    "dinosaurs": 1995,
    "grand@@": 1996,
    "children": 1997,
    "ane": 1998,
    "Po@@": 1999,
    "yn@@": 2000,
    "tells": 2001,
    "her": 2002,
    "explore": 2003,
    "susta@@": 2004,
    "environ@@": 2005,
    "ments": 2006,
    "start": 2007,
    "writing": 2008,
    "research": 2009,
    "sur@@": 2010,
    "ine@@": 2011,
    "becoming": 2012,
    "anything": 2013,
    "hard": 2014,
    "enough": 2015,
    "skills": 2016,
    "task": 2017,
    "operating": 2018,
    "st": 2019,
    "realized": 2020,
    "deep@@": 2021,
    "medicine": 2022,
    "existence": 2023,
    "due": 2024,
    "normally": 2025,
    "care": 2026,
    "asking": 2027,
    "afford": 2028,
    "fight": 2029,
    "government": 2030,
    "problem": 2031,
    "answer": 2032,
    "cause": 2033,
    "bles": 2034,
    "complexity": 2035,
    "science": 2036,
    "generations": 2037,
    "Le@@": 2038,
    "wi@@": 2039,
    "Thomas": 2040,
    "The": 2041,
    "Y@@": 2042,
    "oun@@": 2043,
    "Science": 2044,
    "physi@@": 2045,
    "cian": 2046,
    "writer": 2047,
    "favorite": 2048,
    "wri@@": 2049,
    "ters": 2050,
    "wrote": 2051,
    "explain": 2052,
    "among": 2053,
    "medical": 2054,
    "City": 2055,
    "ital": 2056,
    "pre": 2057,
    "pen@@": 2058,
    "19@@": 2059,
    "7": 2060,
    "cheap": 2061,
    "effective": 2062,
    "hospital": 2063,
    "attention": 2064,
    "difference": 2065,
    "ran@@": 2066,
    "bus@@": 2067,
    "expla@@": 2068,
    "diagnos@@": 2069,
    "lob@@": 2070,
    "example": 2071,
    "je@@": 2072,
    "bodies": 2073,
    "bacter@@": 2074,
    "stre@@": 2075,
    "sub": 2076,
    "typ@@": 2077,
    "ges@@": 2078,
    "heart": 2079,
    "ble@@": 2080,
    "int": 2081,
    "opening": 2082,
    "prepar@@": 2083,
    "tent": 2084,
    "aly@@": 2085,
    "sy@@": 2086,
    "nice": 2087,
    "cur@@": 2088,
    "beyond": 2089,
    "core": 2090,
    "structure": 2091,
    "cri@@": 2092,
    "tools": 2093,
    "fra@@": 2094,
    "drew": 2095,
    "un": 2096,
    "cope": 2097,
    "cra@@": 2098,
    "ts@@": 2099,
    "values": 2100,
    "coura@@": 2101,
    "independent": 2102,
    "self": 2103,
    "suff@@": 2104,
    "ici@@": 2105,
    "auton@@": 2106,
    "highest": 2107,
    "value": 2108,
    "treat@@": 2109,
    "nearly": 2110,
    "cure": 2111,
    "healthy": 2112,
    "proce@@": 2113,
    "dur@@": 2114,
    "lic@@": 2115,
    "sed": 2116,
    "dep@@": 2117,
    "cap@@": 2118,
    "town": 2119,
    "alone": 2120,
    "reach@@": 2121,
    "study": 2122,
    "clin@@": 2123,
    "70": 2124,
    "full": 2125,
    "qui@@": 2126,
    "cked": 2127,
    "once": 2128,
    "20th": 2129,
    "century": 2130,
    "typical": 2131,
    "patient": 2132,
    "speci@@": 2133,
    "physical": 2134,
    "therap@@": 2135,
    "ses": 2136,
    "primar@@": 2137,
    "everyone": 2138,
    "holding": 2139,
    "depen@@": 2140,
    "dence": 2141,
    "ency": 2142,
    "disaster": 2143,
    "trained": 2144,
    "boys": 2145,
    "patients": 2146,
    "evidence": 2147,
    "tery": 2148,
    "disease": 2149,
    "appropri@@": 2150,
    "60": 2151,
    "ma": 2152,
    "stro@@": 2153,
    "hospit@@": 2154,
    "infe@@": 2155,
    "failed": 2156,
    "follow": 2157,
    "practic@@": 2158,
    "ene": 2159,
    "sick": 2160,
    "amazing": 2161,
    "smart": 2162,
    "technologies": 2163,
    "cons@@": 2164,
    "ist@@": 2165,
    "ently": 2166,
    "fin@@": 2167,
    "ish": 2168,
    "sign": 2169,
    "aff@@": 2170,
    "led": 2171,
    "This": 2172,
    "requ@@": 2173,
    "ires": 2174,
    "ignor@@": 2175,
    "facts": 2176,
    "data": 2177,
    "increas@@": 2178,
    "expensive": 2179,
    "necessarily": 2180,
    "vice": 2181,
    "vers@@": 2182,
    "turns": 2183,
    "fe@@": 2184,
    "ations": 2185,
    "efficient": 2186,
    "&#91;": 2187,
    "&#93;": 2188,
    "talking": 2189,
    "tioning": 2190,
    "Medi@@": 2191,
    "choice": 2192,
    "positive": 2193,
    "ones": 2194,
    "west": 2195,
    "compon@@": 2196,
    "obs@@": 2197,
    "terrible": 2198,
    "design": 2199,
    "strategy": 2200,
    "famous": 2201,
    "experiment": 2202,
    "tou@@": 2203,
    "car": 2204,
    "lead": 2205,
    "sch@@": 2206,
    "err@@": 2207,
    "engine": 2208,
    "W": 2209,
    "ass@@": 2210,
    "unk": 2211,
    "anywhere": 2212,
    "sometimes": 2213,
    "acting": 2214,
    "looking": 2215,
    "sk@@": 2216,
    "ill": 2217,
    "number": 2218,
    "success": 2219,
    "alist": 2220,
    "sex@@": 2221,
    "sounds": 2222,
    "colleagues": 2223,
    "surge@@": 2224,
    "ed@@": 2225,
    "ids": 2226,
    "wa": 2227,
    "T": 2228,
    "repor@@": 2229,
    "newsp@@": 2230,
    "aper": 2231,
    "jour@@": 2232,
    "artic@@": 2233,
    "asked": 2234,
    "brings": 2235,
    "He@@": 2236,
    "alth": 2237,
    "reduce": 2238,
    "dea@@": 2239,
    "ths": 2240,
    "surgery": 2241,
    "spread": 2242,
    "saf@@": 2243,
    "ety": 2244,
    "usual": 2245,
    "tac@@": 2246,
    "kl@@": 2247,
    "training": 2248,
    "alization": 2249,
    "better": 2250,
    "consci@@": 2251,
    "levels": 2252,
    "risk": 2253,
    "construction": 2254,
    "spending": 2255,
    "significant": 2256,
    "Harvard": 2257,
    "wor@@": 2258,
    "rying": 2259,
    "engineer": 2260,
    "fol@@": 2261,
    "chain": 2262,
    "including": 2263,
    "taught": 2264,
    "invol@@": 2265,
    "ause": 2266,
    "identi@@": 2267,
    "fy": 2268,
    "moments": 2269,
    "catch": 2270,
    "ger": 2271,
    "focus": 2272,
    "kill@@": 2273,
    "plane": 2274,
    "isn": 2275,
    "reci@@": 2276,
    "pe": 2277,
    "key": 2278,
    "gotten": 2279,
    "19": 2280,
    "ams": 2281,
    "thes@@": 2282,
    "mix": 2283,
    "rate": 2284,
    "interesting": 2285,
    "complicated": 2286,
    "instead": 2287,
    "introduc@@": 2288,
    "themselves": 2289,
    "name": 2290,
    "zen": 2291,
    "im@@": 2292,
    "ple@@": 2293,
    "mented": 2294,
    "rural": 2295,
    "anz@@": 2296,
    "Se@@": 2297,
    "attle": 2298,
    "adop@@": 2299,
    "rates": 2300,
    "fell": 2301,
    "35": 2302,
    "bigger": 2303,
    "drug": 2304,
    "slow": 2305,
    "birth": 2306,
    "resist@@": 2307,
    "forces": 2308,
    "front": 2309,
    "beha@@": 2310,
    "embra@@": 2311,
    "hu@@": 2312,
    "discipl@@": 2313,
    "opposite": 2314,
    "actual": 2315,
    "We": 2316,
    "tioned": 2317,
    "communicate": 2318,
    "electron@@": 2319,
    "ically": 2320,
    "constantly": 2321,
    "weather": 2322,
    "emer@@": 2323,
    "cies": 2324,
    "seemed": 2325,
    "scientists": 2326,
    "further": 2327,
    "education": 2328,
    "climate": 2329,
    "poverty": 2330,
    "field": 2331,
    "explo@@": 2332,
    "brought": 2333,
    "individu@@": 2334,
    "alis@@": 2335,
    "wan@@": 2336,
    "capable": 2337,
    "extraordinary": 2338,
    "sugges@@": 2339,
    "left": 2340,
    "win@@": 2341,
    "eh@@": 2342,
    "either": 2343,
    "died": 2344,
    "bees": 2345,
    "row": 2346,
    "30": 2347,
    "esti@@": 2348,
    "mate": 2349,
    "los@@": 2350,
    "caused": 2351,
    "phenomenon": 2352,
    "talked": 2353,
    "ony": 2354,
    "oll@@": 2355,
    "Dis@@": 2356,
    "ral": 2357,
    "Valley": 2358,
    "Dec@@": 2359,
    "ember": 2360,
    "below": 2361,
    "ards": 2362,
    "tempor@@": 2363,
    "until": 2364,
    "Fe@@": 2365,
    "bru@@": 2366,
    "shi@@": 2367,
    "pped": 2368,
    "mon@@": 2369,
    "docum@@": 2370,
    "ey@@": 2371,
    "empty": 2372,
    "white": 2373,
    "sum": 2374,
    "worth": 2375,
    "sent@@": 2376,
    "ences": 2377,
    "caught": 2378,
    "ped": 2379,
    "cases": 2380,
    "virus": 2381,
    "new@@": 2382,
    "Isra@@": 2383,
    "guy": 2384,
    "Israel": 2385,
    "gre@@": 2386,
    "call@@": 2387,
    "quit@@": 2388,
    "clear": 2389,
    "ggl@@": 2390,
    "why": 2391,
    "suddenly": 2392,
    "diseases": 2393,
    "tors": 2394,
    "dynamic": 2395,
    "finding": 2396,
    "surpris@@": 2397,
    "heal@@": 2398,
    "thi@@": 2399,
    "discover": 2400,
    "ens": 2401,
    "ek@@": 2402,
    "ee@@": 2403,
    "pers": 2404,
    "cover": 2405,
    "loss": 2406,
    "National": 2407,
    "Gu@@": 2408,
    "lit": 2409,
    "buy": 2410,
    "mail": 2411,
    "Australia": 2412,
    "Ha@@": 2413,
    "Florida": 2414,
    "introdu@@": 2415,
    "America": 2416,
    "pos@@": 2417,
    "tal": 2418,
    "und": 2419,
    "pack@@": 2420,
    "ff@@": 2421,
    "ice": 2422,
    "always": 2423,
    "ages": 2424,
    "inst@@": 2425,
    "plac@@": 2426,
    "2.@@": 2427,
    "4": 2428,
    "gic": 2429,
    "fron@@": 2430,
    "talk": 2431,
    "fascinating": 2432,
    "card": 2433,
    "member": 2434,
    "die": 2435,
    "expres@@": 2436,
    "aged": 2437,
    "passion": 2438,
    "hood": 2439,
    "eping": 2440,
    "tend": 2441,
    "intui@@": 2442,
    "privi@@": 2443,
    "lege": 2444,
    "Haiti": 2445,
    "earlier": 2446,
    "dy": 2447,
    "explan@@": 2448,
    "ver@@": 2449,
    "ished": 2450,
    "nation": 2451,
    "exc@@": 2452,
    "kno@@": 2453,
    "mal": 2454,
    "block": 2455,
    "dung": 2456,
    "tin": 2457,
    "cans": 2458,
    "eil": 2459,
    "used": 2460,
    "scre@@": 2461,
    "ening": 2462,
    "dow": 2463,
    "spir@@": 2464,
    "Da@@": 2465,
    "ken@@": 2466,
    "child": 2467,
    "condition": 2468,
    "raised": 2469,
    "ast": 2470,
    "ancient": 2471,
    "Egyp@@": 2472,
    "ile": 2473,
    "mov@@": 2474,
    "force": 2475,
    "ries": 2476,
    "80": 2477,
    "worried": 2478,
    "gment": 2479,
    "mig@@": 2480,
    "rat@@": 2481,
    "ads": 2482,
    "families": 2483,
    "twice": 2484,
    "ade": 2485,
    "Pen@@": 2486,
    "road": 2487,
    "af@@": 2488,
    "\u00e9": 2489,
    "&apos;@@": 2490,
    "clo@@": 2491,
    "Ka@@": 2492,
    "thy": 2493,
    "break@@": 2494,
    "drop": 2495,
    "din@@": 2496,
    "during": 2497,
    "father": 2498,
    "guys": 2499,
    "hur@@": 2500,
    "hel@@": 2501,
    "hau@@": 2502,
    "pit@@": 2503,
    "histor@@": 2504,
    "exciting": 2505,
    "importance": 2506,
    "ical": 2507,
    "bit@@": 2508,
    "directly": 2509,
    "indi@@": 2510,
    "clearly": 2511,
    "diet": 2512,
    "foun@@": 2513,
    "tain": 2514,
    "essen@@": 2515,
    "gers": 2516,
    "expression": 2517,
    "sex": 2518,
    "workers": 2519,
    "paid": 2520,
    "services": 2521,
    "ct@@": 2522,
    "male": 2523,
    "tile": 2524,
    "bloo@@": 2525,
    "tili@@": 2526,
    "app@@": 2527,
    "vari@@": 2528,
    "gather@@": 2529,
    "stay": 2530,
    "usi@@": 2531,
    "electric": 2532,
    "charge": 2533,
    "helps": 2534,
    "ority": 2535,
    "na@@": 2536,
    "mm@@": 2537,
    "ve@@": 2538,
    "sel@@": 2539,
    "400": 2540,
    "thir@@": 2541,
    "state": 2542,
    "wrong": 2543,
    "ator": 2544,
    "us@@": 2545,
    "cial": 2546,
    "flying": 2547,
    "tiny": 2548,
    "flies": 2549,
    "fan@@": 2550,
    "cy": 2551,
    "mur@@": 2552,
    "der@@": 2553,
    "word": 2554,
    "Au@@": 2555,
    "ence": 2556,
    "Den@@": 2557,
    "En@@": 2558,
    "gel@@": 2559,
    "thanks": 2560,
    "sit": 2561,
    "lit@@": 2562,
    "dri@@": 2563,
    "ll": 2564,
    "hole": 2565,
    "collect": 2566,
    "lay": 2567,
    "hang": 2568,
    "wait": 2569,
    "environment": 2570,
    "ators": 2571,
    "disappe@@": 2572,
    "ared": 2573,
    "West": 2574,
    "Co@@": 2575,
    "decl@@": 2576,
    "bat@@": 2577,
    "ad": 2578,
    "bat": 2579,
    "nose": 2580,
    "syn@@": 2581,
    "dro@@": 2582,
    "popul@@": 2583,
    "ca@@": 2584,
    "New": 2585,
    "York": 2586,
    "connection": 2587,
    "solve": 2588,
    "easy": 2589,
    "dows": 2590,
    "law@@": 2591,
    "sym@@": 2592,
    "bol": 2593,
    "rich": 2594,
    "des@@": 2595,
    "Americans": 2596,
    "produced": 2597,
    "wing": 2598,
    "keeping": 2599,
    "ystem@@": 2600,
    "ouse": 2601,
    "she@@": 2602,
    "ep": 2603,
    "war": 2604,
    "effort": 2605,
    "War": 2606,
    "advantage": 2607,
    "ideas": 2608,
    "forma@@": 2609,
    "relationship": 2610,
    "wine": 2611,
    "ani@@": 2612,
    "gran@@": 2613,
    "appar@@": 2614,
    "city": 2615,
    "Paris": 2616,
    "perfect": 2617,
    "inclu@@": 2618,
    "journey": 2619,
    "occur@@": 2620,
    "leading": 2621,
    "gent@@": 2622,
    "stery": 2623,
    "behind": 2624,
    "ming": 2625,
    "ling": 2626,
    "English": 2627,
    "dad": 2628,
    "communication": 2629,
    "honest": 2630,
    "behavior": 2631,
    "classroom": 2632,
    "everywhere": 2633,
    "Christ@@": 2634,
    "mas": 2635,
    "party": 2636,
    "opini@@": 2637,
    "hear": 2638,
    "Ru@@": 2639,
    "sister": 2640,
    "mit": 2641,
    "If": 2642,
    "text": 2643,
    "message": 2644,
    "she": 2645,
    "hist@@": 2646,
    "Ch@@": 2647,
    "amp@@": 2648,
    "ship": 2649,
    "rect": 2650,
    "North": 2651,
    "Carol@@": 2652,
    "ina": 2653,
    "sou@@": 2654,
    "won": 2655,
    "2004": 2656,
    "2005": 2657,
    "2008": 2658,
    "Japan": 2659,
    "yo": 2660,
    "standing": 2661,
    "stage": 2662,
    "ear@@": 2663,
    "dream": 2664,
    "watching": 2665,
    "God": 2666,
    "\u00ea@@": 2667,
    "la": 2668,
    "hear@@": 2669,
    "sorry": 2670,
    "wide": 2671,
    "promis@@": 2672,
    "techni@@": 2673,
    "sol@@": 2674,
    "Ma@@": 2675,
    "hat@@": 2676,
    "u": 2677,
    "ler": 2678,
    "Ele@@": 2679,
    "ff": 2680,
    "talks": 2681,
    "magazine": 2682,
    "observ@@": 2683,
    "artist": 2684,
    "12": 2685,
    "fun@@": 2686,
    "nel": 2687,
    "fundamental": 2688,
    "period": 2689,
    "No@@": 2690,
    "ah": 2691,
    "bird": 2692,
    "animal": 2693,
    "moves": 2694,
    "creatures": 2695,
    "wild": 2696,
    "humanity": 2697,
    "descri@@": 2698,
    "yrami@@": 2699,
    "Hom@@": 2700,
    "stu@@": 2701,
    "studying": 2702,
    "professor": 2703,
    "creation": 2704,
    "prof@@": 2705,
    "sophistic@@": 2706,
    "ot": 2707,
    "dete@@": 2708,
    "monit@@": 2709,
    "currently": 2710,
    "continu@@": 2711,
    "eters": 2712,
    "exhi@@": 2713,
    "complex": 2714,
    "intelligence": 2715,
    "short": 2716,
    "David": 2717,
    "bor@@": 2718,
    "ver": 2719,
    "exist": 2720,
    "blue": 2721,
    "ale": 2722,
    "exists": 2723,
    "mag@@": 2724,
    "nific@@": 2725,
    "den@@": 2726,
    "level": 2727,
    "form@@": 2728,
    "influ@@": 2729,
    "ential": 2730,
    "Western": 2731,
    "civilization": 2732,
    "edge": 2733,
    "lack": 2734,
    "movement": 2735,
    "Ven@@": 2736,
    "hun@@": 2737,
    "il": 2738,
    "cent@@": 2739,
    "despite": 2740,
    "wer@@": 2741,
    "techniques": 2742,
    "young": 2743,
    "gel": 2744,
    "play": 2745,
    "cannot": 2746,
    "terms": 2747,
    "adult": 2748,
    "sun": 2749,
    "respond": 2750,
    "vity": 2751,
    "sho@@": 2752,
    "ots": 2753,
    "toward": 2754,
    "pu@@": 2755,
    "ca": 2756,
    "sle@@": 2757,
    "mach@@": 2758,
    "ery": 2759,
    "perfectly": 2760,
    "veget@@": 2761,
    "arian": 2762,
    "experim@@": 2763,
    "entation": 2764,
    "communic@@": 2765,
    "dist@@": 2766,
    "ingu@@": 2767,
    "vol@@": 2768,
    "ati@@": 2769,
    "ination": 2770,
    "issue": 2771,
    "transp@@": 2772,
    "ort": 2773,
    "rats": 2774,
    "transpor@@": 2775,
    "ergi@@": 2776,
    "zing": 2777,
    "mani@@": 2778,
    "pul@@": 2779,
    "promise": 2780,
    "Charles": 2781,
    "Darwin": 2782,
    "revolution": 2783,
    "vement": 2784,
    "lan@@": 2785,
    "allowed": 2786,
    "speak": 2787,
    "Cambridge": 2788,
    "consi@@": 2789,
    "500": 2790,
    "mark": 2791,
    "dly": 2792,
    "radical": 2793,
    "acts": 2794,
    "lower": 2795,
    "metaphor": 2796,
    "letters": 2797,
    "Ho@@": 2798,
    "president": 2799,
    "Ro@@": 2800,
    "So@@": 2801,
    "maxim@@": 2802,
    "auth@@": 2803,
    "Britain": 2804,
    "speaking": 2805,
    "slo@@": 2806,
    "legs": 2807,
    "regi@@": 2808,
    "chron@@": 2809,
    "ize": 2810,
    "studied": 2811,
    "region": 2812,
    "pic@@": 2813,
    "tran@@": 2814,
    "sition": 2815,
    "milli@@": 2816,
    "meter": 2817,
    "signals": 2818,
    "action": 2819,
    "potential": 2820,
    "neurons": 2821,
    "almost": 2822,
    "14": 2823,
    "total": 2824,
    "600": 2825,
    "kilometers": 2826,
    "surface": 2827,
    "others": 2828,
    "uting": 2829,
    "machines": 2830,
    "networks": 2831,
    "similar": 2832,
    "reason": 2833,
    "dation": 2834,
    "90": 2835,
    "continue": 2836,
    "evol@@": 2837,
    "possibility": 2838,
    "robots": 2839,
    "robot": 2840,
    "normal": 2841,
    "sters": 2842,
    "lab": 2843,
    "bri@@": 2844,
    "machine": 2845,
    "electrical": 2846,
    "possibilities": 2847,
    "driven": 2848,
    "powerful": 2849,
    "med": 2850,
    "Man@@": 2851,
    "dd@@": 2852,
    "fighting": 2853,
    "dat@@": 2854,
    "opportunities": 2855,
    "Ital@@": 2856,
    "tri@@": 2857,
    "v": 2858,
    "Ever@@": 2859,
    "Su@@": 2860,
    "Ri@@": 2861,
    "Janu@@": 2862,
    "woman": 2863,
    "star": 2864,
    "hidden": 2865,
    "camera": 2866,
    "train": 2867,
    "Dan@@": 2868,
    "degrees": 2869,
    "wearing": 2870,
    "scar@@": 2871,
    "girl": 2872,
    "pan@@": 2873,
    "noticed": 2874,
    "wei@@": 2875,
    "unfortunately": 2876,
    "ape": 2877,
    "mean@@": 2878,
    "wear": 2879,
    "act": 2880,
    "fortun@@": 2881,
    "cold": 2882,
    "deci@@": 2883,
    "aware": 2884,
    "surro@@": 2885,
    "eye": 2886,
    "contact": 2887,
    "conf@@": 2888,
    "funny": 2889,
    "lau@@": 2890,
    "gh": 2891,
    "ony@@": 2892,
    "ced": 2893,
    "dollar": 2894,
    "sell": 2895,
    "pair": 2896,
    "Th@@": 2897,
    "reve@@": 2898,
    "aling": 2899,
    "reaction": 2900,
    "scene": 2901,
    "10@@": 2902,
    "verse": 2903,
    ",@@": 2904,
    "cities": 2905,
    "impro@@": 2906,
    "class": 2907,
    "zens": 2908,
    "Bri@@": 2909,
    "The@@": 2910,
    "ater": 2911,
    "meeting": 2912,
    "creative": 2913,
    "edi@@": 2914,
    "iling": 2915,
    "walking": 2916,
    "Union": 2917,
    "cent": 2918,
    "ghting": 2919,
    "seconds": 2920,
    "friend": 2921,
    "appe@@": 2922,
    "Lo@@": 2923,
    "ok": 2924,
    "ore": 2925,
    "dres@@": 2926,
    "black": 2927,
    "stood": 2928,
    "park": 2929,
    "signal": 2930,
    "ump@@": 2931,
    "os": 2932,
    "sign@@": 2933,
    "For@@": 2934,
    "tivi@@": 2935,
    "pping": 2936,
    "rt": 2937,
    "ash@@": 2938,
    "advan@@": 2939,
    "Park": 2940,
    "station": 2941,
    "wat@@": 2942,
    "photo": 2943,
    "event": 2944,
    "upon": 2945,
    "email": 2946,
    "stran@@": 2947,
    "school": 2948,
    "kid": 2949,
    "Texas": 2950,
    "2006": 2951,
    "pol@@": 2952,
    "Bu@@": 2953,
    "shop": 2954,
    "products": 2955,
    "regular": 2956,
    "employe@@": 2957,
    "yellow": 2958,
    "photos": 2959,
    "heavy": 2960,
    "custom@@": 2961,
    "agers": 2962,
    "security": 2963,
    "particularly": 2964,
    "9@@": 2965,
    "running": 2966,
    "telling": 2967,
    "ultimately": 2968,
    "police": 2969,
    "management": 2970,
    "illegal": 2971,
    "ameras": 2972,
    "depres@@": 2973,
    "crow@@": 2974,
    "2009": 2975,
    "Qu@@": 2976,
    "ring": 2977,
    "E": 2978,
    "jobs": 2979,
    "illu@@": 2980,
    "fi@@": 2981,
    "was@@": 2982,
    "hands": 2983,
    "ward": 2984,
    "tic@@": 2985,
    "comm@@": 2986,
    "certainly": 2987,
    "occasi@@": 2988,
    "ther": 2989,
    "ums": 2990,
    "games": 2991,
    "game": 2992,
    "All": 2993,
    "stands": 2994,
    "free@@": 2995,
    "bu@@": 2996,
    "listening": 2997,
    "3,000": 2998,
    "sil@@": 2999,
    "sting": 3000,
    "song": 3001,
    "tane@@": 3002,
    "Con@@": 3003,
    "Island": 3004,
    "kids": 3005,
    "accep@@": 3006,
    "table": 3007,
    "seems": 3008,
    "adults": 3009,
    "Char@@": 3010,
    "lie": 3011,
    "To@@": 3012,
    "causes": 3013,
    "hil@@": 3014,
    "vent@@": 3015,
    "ized": 3016,
    "ron@@": 3017,
    "Oc@@": 3018,
    "tober": 3019,
    "predict": 3020,
    "lies": 3021,
    "situation": 3022,
    "knowing": 3023,
    "predi@@": 3024,
    "lives": 3025,
    "damage": 3026,
    "equipment": 3027,
    "provide": 3028,
    "ire": 3029,
    "testing": 3030,
    "out@@": 3031,
    "ented": 3032,
    "can@@": 3033,
    "safe": 3034,
    "simpli@@": 3035,
    "brilliant": 3036,
    "simpl@@": 3037,
    "Can@@": 3038,
    "device": 3039,
    "answers": 3040,
    "cont@@": 3041,
    "amin@@": 3042,
    "special": 3043,
    "simply": 3044,
    "ins@@": 3045,
    "pla@@": 3046,
    "ys": 3047,
    "indic@@": 3048,
    "anyone": 3049,
    "quality": 3050,
    "fold": 3051,
    "inte@@": 3052,
    "wir@@": 3053,
    "net@@": 3054,
    "GPS": 3055,
    "M": 3056,
    "autom@@": 3057,
    "users": 3058,
    "ven@@": 3059,
    "ining": 3060,
    "distribu@@": 3061,
    "transform": 3062,
    "apply": 3063,
    "goal": 3064,
    "ready": 3065,
    "ware": 3066,
    "contribu@@": 3067,
    "development": 3068,
    "ack@@": 3069,
    "Lu@@": 3070,
    "thr@@": 3071,
    "current": 3072,
    "tests": 3073,
    "ay": 3074,
    "2010": 3075,
    "views": 3076,
    "What": 3077,
    "slide": 3078,
    "Te@@": 3079,
    "chnolog@@": 3080,
    "Des@@": 3081,
    "ig@@": 3082,
    "da@@": 3083,
    "Jo@@": 3084,
    "ols": 3085,
    "Well": 3086,
    "ancest@@": 3087,
    "beings": 3088,
    "wards": 3089,
    "gradu@@": 3090,
    "began": 3091,
    "engineering": 3092,
    "timi@@": 3093,
    "true": 3094,
    "religi@@": 3095,
    "phenomen@@": 3096,
    "base": 3097,
    "religion": 3098,
    "ror": 3099,
    "xi@@": 3100,
    "intensi@@": 3101,
    "global": 3102,
    "warming": 3103,
    "Gore": 3104,
    "antly": 3105,
    "institutions": 3106,
    "atures": 3107,
    "mix@@": 3108,
    "evolutionary": 3109,
    "itself": 3110,
    "needs": 3111,
    "respon@@": 3112,
    "policy": 3113,
    "cla@@": 3114,
    "im": 3115,
    "schools": 3116,
    "scho@@": 3117,
    "tex@@": 3118,
    "teach": 3119,
    "toler@@": 3120,
    "religious": 3121,
    "freedom": 3122,
    "whatever": 3123,
    "democracy": 3124,
    "citi@@": 3125,
    "fli@@": 3126,
    "count": 3127,
    "responsible": 3128,
    "parents": 3129,
    "responsibility": 3130,
    "fascin@@": 3131,
    "vie@@": 3132,
    "Rom@@": 3133,
    "Ca@@": 3134,
    "lic": 3135,
    "pra@@": 3136,
    "liber@@": 3137,
    "sion": 3138,
    "democra@@": 3139,
    "principles": 3140,
    "pleas@@": 3141,
    "survival": 3142,
    "gence": 3143,
    "clever": 3144,
    "cket": 3145,
    "clu@@": 3146,
    "whose": 3147,
    "co": 3148,
    "disco@@": 3149,
    "DNA": 3150,
    "Les@@": 3151,
    "evolution": 3152,
    "gent": 3153,
    "desig@@": 3154,
    "belie@@": 3155,
    "ably": 3156,
    "purpose": 3157,
    "ight": 3158,
    "clim@@": 3159,
    "flu@@": 3160,
    "spo@@": 3161,
    "uni@@": 3162,
    "bright": 3163,
    "lesson": 3164,
    "genetic": 3165,
    "Mac@@": 3166,
    "plus": 3167,
    "trial": 3168,
    "yesterday": 3169,
    "remember": 3170,
    "check": 3171,
    "calcul@@": 3172,
    "sources": 3173,
    "forth": 3174,
    "written": 3175,
    "pas@@": 3176,
    "sage": 3177,
    "billions": 3178,
    "unique": 3179,
    "chance": 3180,
    "pain@@": 3181,
    "thin": 3182,
    "humans": 3183,
    "arrived": 3184,
    "bal@@": 3185,
    "ances": 3186,
    "position": 3187,
    "layer": 3188,
    "paint": 3189,
    "suppose": 3190,
    "arti@@": 3191,
    "puzz@@": 3192,
    "ges": 3193,
    "ama@@": 3194,
    "origin@@": 3195,
    "pass": 3196,
    "mouse": 3197,
    "Mi@@": 3198,
    "uns": 3199,
    "aten": 3200,
    "words": 3201,
    "Islam": 3202,
    "Al@@": 3203,
    "Chris@@": 3204,
    "says": 3205,
    "hr@@": 3206,
    "dered": 3207,
    "War@@": 3208,
    "ren": 3209,
    "rie@@": 3210,
    "stand@@": 3211,
    "succe@@": 3212,
    "agree": 3213,
    "+": 3214,
    "traditional": 3215,
    "up@@": 3216,
    "interpre@@": 3217,
    "tations": 3218,
    "atest": 3219,
    "ghts": 3220,
    "psych@@": 3221,
    "acc@@": 3222,
    "essi@@": 3223,
    "sin@@": 3224,
    "ere": 3225,
    "Mar@@": 3226,
    "truth": 3227,
    "bits": 3228,
    "main": 3229,
    "acci@@": 3230,
    "dents": 3231,
    "astronom@@": 3232,
    "random": 3233,
    "signific@@": 3234,
    "rief": 3235,
    "belief": 3236,
    "afraid": 3237,
    "tim@@": 3238,
    "suppor@@": 3239,
    "especially": 3240,
    "reality": 3241,
    "central": 3242,
    "Michael": 3243,
    "rain": 3244,
    "weren": 3245,
    "fal@@": 3246,
    "hearing": 3247,
    "shap@@": 3248,
    "serve": 3249,
    "minis@@": 3250,
    "efully": 3251,
    "tail": 3252,
    "hor@@": 3253,
    "trilli@@": 3254,
    "decisions": 3255,
    "ept": 3256,
    "anthrop@@": 3257,
    "ologists": 3258,
    "not@@": 3259,
    "deeply": 3260,
    "bling": 3261,
    "argu@@": 3262,
    "moral": 3263,
    "ner": 3264,
    "theory": 3265,
    "contr@@": 3266,
    "biology": 3267,
    "seriously": 3268,
    "standard": 3269,
    "rely": 3270,
    "direction": 3271,
    "sel": 3272,
    "OK": 3273,
    "practice": 3274,
    "adap@@": 3275,
    "ld@@": 3276,
    "reas@@": 3277,
    "obje@@": 3278,
    "response": 3279,
    "Great": 3280,
    "Com@@": 3281,
    "nations": 3282,
    "fing": 3283,
    "side": 3284,
    "driving": 3285,
    "zero": 3286,
    "ise": 3287,
    "general": 3288,
    "commit@@": 3289,
    "thei@@": 3290,
    "nos@@": 3291,
    "san@@": 3292,
    "Dan": 3293,
    "philosop@@": 3294,
    "calls": 3295,
    "transl@@": 3296,
    "frequ@@": 3297,
    "individual": 3298,
    "definition": 3299,
    "ears": 3300,
    "inci@@": 3301,
    "dent@@": 3302,
    "ear": 3303,
    "percei@@": 3304,
    "dest": 3305,
    "passi@@": 3306,
    "posi@@": 3307,
    "Re@@": 3308,
    "duc@@": 3309,
    "relevant": 3310,
    "cards": 3311,
    "tively": 3312,
    "sive": 3313,
    "tin@@": 3314,
    "enjo@@": 3315,
    "facing": 3316,
    "relationships": 3317,
    "noise": 3318,
    "unding": 3319,
    "according": 3320,
    "European": 3321,
    "ills": 3322,
    "stick": 3323,
    "fing@@": 3324,
    "cool@@": 3325,
    "head@@": 3326,
    "ray": 3327,
    "Sch@@": 3328,
    "schi@@": 3329,
    "zop@@": 3330,
    "loc@@": 3331,
    "iting": 3332,
    "voices": 3333,
    "fit": 3334,
    "atta@@": 3335,
    "phones": 3336,
    "ten": 3337,
    "roughly": 3338,
    "teen@@": 3339,
    "university": 3340,
    "college": 3341,
    "fres@@": 3342,
    "dama@@": 3343,
    "rais@@": 3344,
    "quick": 3345,
    "please": 3346,
    "professional": 3347,
    "ctors": 3348,
    "oud": 3349,
    "voice": 3350,
    "wind": 3351,
    "sto@@": 3352,
    "Eli@@": 3353,
    "language": 3354,
    "art": 3355,
    "background": 3356,
    "propor@@": 3357,
    "yourself": 3358,
    "mod@@": 3359,
    "improve": 3360,
    "therapy": 3361,
    "cancer": 3362,
    "tis@@": 3363,
    "dimen@@": 3364,
    "secon@@": 3365,
    "instrument": 3366,
    "musici@@": 3367,
    "brains": 3368,
    "groups": 3369,
    "ich@@": 3370,
    "enjoy": 3371,
    "played": 3372,
    "leave": 3373,
    "path": 3374,
    "leaving": 3375,
    "Juli@@": 3376,
    "Sh@@": 3377,
    "increasingly": 3378,
    "mental": 3379,
    "plan": 3380,
    "mentioned": 3381,
    "om": 3382,
    "And": 3383,
    "profound": 3384,
    "effect": 3385,
    "objects": 3386,
    "\u00ed": 3387,
    "pull": 3388,
    "MIT": 3389,
    "ab": 3390,
    "maker": 3391,
    "creativity": 3392,
    "\u00ed@@": 3393,
    "bar@@": 3394,
    "Ver@@": 3395,
    "ack": 3396,
    "School": 3397,
    "han@@": 3398,
    "willing": 3399,
    "wo@@": 3400,
    "omet@@": 3401,
    "shapes": 3402,
    "angle": 3403,
    "hin@@": 3404,
    "ess": 3405,
    "meat": 3406,
    "explor@@": 3407,
    "stuck": 3408,
    "45": 3409,
    "sor@@": 3410,
    "circle": 3411,
    "sti@@": 3412,
    "Wow": 3413,
    "intu@@": 3414,
    "supposed": 3415,
    "pp@@": 3416,
    "Okay": 3417,
    "non@@": 3418,
    "lin@@": 3419,
    "push": 3420,
    "mechan@@": 3421,
    "unch": 3422,
    "cat@@": 3423,
    "wonder": 3424,
    "dem@@": 3425,
    "ano": 3426,
    "circu@@": 3427,
    "ordinary": 3428,
    "sm@@": 3429,
    "wes@@": 3430,
    "ome": 3431,
    "cil": 3432,
    "wire": 3433,
    "electricity": 3434,
    "ush@@": 3435,
    "conduc@@": 3436,
    "kit@@": 3437,
    "chen": 3438,
    "viol@@": 3439,
    "op": 3440,
    "travel@@": 3441,
    "poin@@": 3442,
    "work@@": 3443,
    "Ta@@": 3444,
    "museum": 3445,
    "gan": 3446,
    "designers": 3447,
    "smaller": 3448,
    "ump": 3449,
    "ics": 3450,
    "computers": 3451,
    "beginning": 3452,
    "ug": 3453,
    "sli@@": 3454,
    "showed": 3455,
    "progra@@": 3456,
    "mming": 3457,
    "got@@": 3458,
    "believed": 3459,
    "meaning@@": 3460,
    "prove": 3461,
    "Pla@@": 3462,
    "oh": 3463,
    "controll@@": 3464,
    "plastic": 3465,
    "Project": 3466,
    "setting": 3467,
    "irs": 3468,
    "cool": 3469,
    "shouldn": 3470,
    "changing": 3471,
    "oth": 3472,
    "Ki@@": 3473,
    "bac@@": 3474,
    "videos": 3475,
    "Span@@": 3476,
    "Ban@@": 3477,
    "lunch": 3478,
    "drin@@": 3479,
    "pr@@": 3480,
    "dru@@": 3481,
    "dau@@": 3482,
    "comple@@": 3483,
    "brother": 3484,
    "diag@@": 3485,
    "technical": 3486,
    "drawing": 3487,
    "mp@@": 3488,
    "unded": 3489,
    "dog": 3490,
    "useful": 3491,
    "feeling": 3492,
    "bility": 3493,
    "pal@@": 3494,
    "ned": 3495,
    "glo@@": 3496,
    "allow": 3497,
    "gate": 3498,
    "discus@@": 3499,
    "excited": 3500,
    "5": 3501,
    "Bro@@": 3502,
    "yn": 3503,
    "tur@@": 3504,
    "abel": 3505,
    "governments": 3506,
    "surprise": 3507,
    "landscape": 3508,
    "accident": 3509,
    "ckets": 3510,
    "chap@@": 3511,
    "older": 3512,
    "mess@@": 3513,
    "reali@@": 3514,
    "following": 3515,
    "mos@@": 3516,
    "creating": 3517,
    "ana": 3518,
    "cli@@": 3519,
    "cker": 3520,
    "shares": 3521,
    "mes@@": 3522,
    "demo@@": 3523,
    "sky": 3524,
    "stars": 3525,
    "Sun": 3526,
    "peri@@": 3527,
    "refle@@": 3528,
    "ru@@": 3529,
    "ment@@": 3530,
    "teles@@": 3531,
    "vast": 3532,
    "modern": 3533,
    "stun@@": 3534,
    "series": 3535,
    "Big": 3536,
    "ang": 3537,
    "convin@@": 3538,
    "visual": 3539,
    "ambi@@": 3540,
    "holes": 3541,
    "lets": 3542,
    "character@@": 3543,
    "istic": 3544,
    "sha@@": 3545,
    "bert": 3546,
    "whom": 3547,
    "grid": 3548,
    "fre@@": 3549,
    "fall@@": 3550,
    "straight": 3551,
    "lines": 3552,
    "fle@@": 3553,
    "object": 3554,
    "tiv@@": 3555,
    "Kar@@": 3556,
    "ild": 3557,
    "Ger@@": 3558,
    "Je@@": 3559,
    "scientist": 3560,
    "ball@@": 3561,
    "equ@@": 3562,
    "mathematical": 3563,
    "impres@@": 3564,
    "dic@@": 3565,
    "formation": 3566,
    "decades": 3567,
    "astro@@": 3568,
    "collap@@": 3569,
    "rop@@": 3570,
    "ond": 3571,
    "Manhattan": 3572,
    "square": 3573,
    "tage": 3574,
    "falls": 3575,
    "len@@": 3576,
    "Gal@@": 3577,
    "yl@@": 3578,
    "galaxy": 3579,
    "Mil@@": 3580,
    "cross": 3581,
    "relative": 3582,
    "tun@@": 3583,
    "inning": 3584,
    "speed": 3585,
    "inging": 3586,
    "wave": 3587,
    "zes": 3588,
    "travel": 3589,
    "simul@@": 3590,
    "NASA": 3591,
    "waves": 3592,
    "ational": 3593,
    "iet": 3594,
    "onate": 3595,
    "ching": 3596,
    "slightly": 3597,
    "glam@@": 3598,
    "ghter": 3599,
    "eventually": 3600,
    "ily": 3601,
    "distance": 3602,
    "ong": 3603,
    "O": 3604,
    "mark@@": 3605,
    "sensi@@": 3606,
    "bble": 3607,
    "galaxies": 3608,
    "fro@@": 3609,
    "perc@@": 3610,
    "eption": 3611,
    "final": 3612,
    "isi@@": 3613,
    "accur@@": 3614,
    "ton": 3615,
    "ry": 3616,
    "instru@@": 3617,
    "hasn": 3618,
    "spirit": 3619,
    "ris@@": 3620,
    "multi@@": 3621,
    "somehow": 3622,
    "fundament@@": 3623,
    "connected": 3624,
    "orig@@": 3625,
    "physic@@": 3626,
    "anding": 3627,
    "shift": 3628,
    "perspective": 3629,
    "enti@@": 3630,
    "artists": 3631,
    "held": 3632,
    "learned": 3633,
    "Mon@@": 3634,
    "quanti@@": 3635,
    "measure": 3636,
    "painting": 3637,
    "meas@@": 3638,
    "ured": 3639,
    "pli@@": 3640,
    "divi@@": 3641,
    "shif@@": 3642,
    "dynam@@": 3643,
    "pris@@": 3644,
    "laws": 3645,
    "prison": 3646,
    "return": 3647,
    "ili@@": 3648,
    "cycle": 3649,
    "contin@@": 3650,
    "ues": 3651,
    "lied": 3652,
    "institu@@": 3653,
    "2007": 3654,
    "part@@": 3655,
    "ner@@": 3656,
    "sustain@@": 3657,
    "lec@@": 3658,
    "tures": 3659,
    "Center": 3660,
    "danger@@": 3661,
    "Wil@@": 3662,
    "lands": 3663,
    "gun": 3664,
    "facili@@": 3665,
    "violent": 3666,
    "kept": 3667,
    "profession@@": 3668,
    "placed": 3669,
    "mobile": 3670,
    "exer@@": 3671,
    "cise": 3672,
    "walls": 3673,
    "Mr.": 3674,
    "18": 3675,
    "violence": 3676,
    "collective": 3677,
    "raise": 3678,
    "addi@@": 3679,
    "challenges": 3680,
    "clas@@": 3681,
    "programs": 3682,
    "politics": 3683,
    "defin@@": 3684,
    "Iran": 3685,
    "cen@@": 3686,
    "rest": 3687,
    "pain": 3688,
    "lon@@": 3689,
    "separ@@": 3690,
    "therefore": 3691,
    "emotional": 3692,
    "ker": 3693,
    "unds": 3694,
    "identity": 3695,
    "constru@@": 3696,
    "respect": 3697,
    "cious": 3698,
    "crime": 3699,
    "threat": 3700,
    "powered": 3701,
    "cultural": 3702,
    "bili@@": 3703,
    "weap@@": 3704,
    "vy": 3705,
    "audience": 3706,
    "main@@": 3707,
    "worry": 3708,
    "Islam@@": 3709,
    "197@@": 3710,
    "Per@@": 3711,
    "ide@@": 3712,
    "immer@@": 3713,
    "ty@@": 3714,
    "section": 3715,
    "shar@@": 3716,
    "Mor@@": 3717,
    "Tur@@": 3718,
    "Mexico": 3719,
    "finished": 3720,
    "cis@@": 3721,
    "cou@@": 3722,
    "leader": 3723,
    "Mos@@": 3724,
    "Sha@@": 3725,
    "nov@@": 3726,
    "felt": 3727,
    "ners": 3728,
    "cular": 3729,
    "intellectual": 3730,
    "ought": 3731,
    "balance": 3732,
    "fem@@": 3733,
    "ends": 3734,
    "emotions": 3735,
    "charac@@": 3736,
    "summer": 3737,
    "justice": 3738,
    "repe@@": 3739,
    "ggle": 3740,
    "inspi@@": 3741,
    "portra@@": 3742,
    "educ@@": 3743,
    "ually": 3744,
    "circum@@": 3745,
    "stan@@": 3746,
    "rule": 3747,
    "operate": 3748,
    "born": 3749,
    "post": 3750,
    "soci@@": 3751,
    "consu@@": 3752,
    "trib@@": 3753,
    "wed": 3754,
    "dou@@": 3755,
    "bt": 3756,
    "ders": 3757,
    "sted": 3758,
    "ame": 3759,
    "difficult": 3760,
    "resol@@": 3761,
    "capacity": 3762,
    "feels": 3763,
    "compas@@": 3764,
    "sion@@": 3765,
    "big@@": 3766,
    "status": 3767,
    "eness": 3768,
    "compassion": 3769,
    "pathy": 3770,
    "match": 3771,
    "ette": 3772,
    "players": 3773,
    "inner": 3774,
    "changes": 3775,
    "hing": 3776,
    "win": 3777,
    "mol@@": 3778,
    "alism": 3779,
    "reach": 3780,
    "gender": 3781,
    "experi@@": 3782,
    "enced": 3783,
    "date": 3784,
    "sl@@": 3785,
    "himself": 3786,
    "limit@@": 3787,
    "wants": 3788,
    "filled": 3789,
    "dness": 3790,
    "fill": 3791,
    "desire": 3792,
    "recogni@@": 3793,
    "ami": 3794,
    "fes@@": 3795,
    "emotion": 3796,
    "shor@@": 3797,
    "swi@@": 3798,
    "coo@@": 3799,
    "dec@@": 3800,
    "adver@@": 3801,
    "tra": 3802,
    "ind": 3803,
    "teeth": 3804,
    "teaching": 3805,
    "anda": 3806,
    "Sar@@": 3807,
    "vels": 3808,
    "wal@@": 3809,
    "Sal@@": 3810,
    "yp@@": 3811,
    "South": 3812,
    "usually": 3813,
    "capital": 3814,
    "As@@": 3815,
    "sem@@": 3816,
    "differ@@": 3817,
    "memory": 3818,
    "manufac@@": 3819,
    "K": 3820,
    "analy@@": 3821,
    "dge": 3822,
    "mot@@": 3823,
    "soon": 3824,
    "feedback": 3825,
    "embar@@": 3826,
    "ahead": 3827,
    "notion": 3828,
    "interaction": 3829,
    "original": 3830,
    "ung": 3831,
    "pt": 3832,
    "aded": 3833,
    "content": 3834,
    "New@@": 3835,
    "sum@@": 3836,
    "teachers": 3837,
    "write": 3838,
    "tomorrow": 3839,
    "obvious": 3840,
    "teacher": 3841,
    "faces": 3842,
    "tag@@": 3843,
    "organization": 3844,
    "profit": 3845,
    "primi@@": 3846,
    "class@@": 3847,
    "95": 3848,
    "student": 3849,
    "anal@@": 3850,
    "learning": 3851,
    "cle": 3852,
    "C": 3853,
    "sudden": 3854,
    "necessary": 3855,
    "map": 3856,
    "addition": 3857,
    "equal": 3858,
    "gene@@": 3859,
    "lear@@": 3860,
    "Los": 3861,
    "fif@@": 3862,
    "grade": 3863,
    "concep@@": 3864,
    "profi@@": 3865,
    "attack": 3866,
    "ric": 3867,
    "aw@@": 3868,
    "marketing": 3869,
    "turing": 3870,
    "produc@@": 3871,
    "focused": 3872,
    "attemp@@": 3873,
    "hei@@": 3874,
    "ght": 3875,
    "pac@@": 3876,
    "differently": 3877,
    "extra": 3878,
    "race": 3879,
    "lab@@": 3880,
    "valu@@": 3881,
    "street": 3882,
    "Cal@@": 3883,
    "emerging": 3884,
    "Bill": 3885,
    "basis": 3886,
    "collabor@@": 3887,
    "che": 3888,
    "spec@@": 3889,
    "foc@@": 3890,
    "user": 3891,
    "interface": 3892,
    "volunte@@": 3893,
    "gli@@": 3894,
    "remarkable": 3895,
    "struc@@": 3896,
    "tured": 3897,
    "jects": 3898,
    "scri@@": 3899,
    "imagination": 3900,
    "cin@@": 3901,
    "lad@@": 3902,
    "Alzheimer": 3903,
    "Ros@@": 3904,
    "dent": 3905,
    "wil@@": 3906,
    "hadn": 3907,
    "blind": 3908,
    "mouth": 3909,
    "ft": 3910,
    "colors": 3911,
    "floor": 3912,
    "eil@@": 3913,
    "motion": 3914,
    "tened": 3915,
    "exam@@": 3916,
    "medic@@": 3917,
    "deter@@": 3918,
    "blin@@": 3919,
    "Bon@@": 3920,
    "ie@@": 3921,
    "curious": 3922,
    "homes": 3923,
    "gely": 3924,
    "poor": 3925,
    "17@@": 3926,
    "various": 3927,
    "ief": 3928,
    "fs": 3929,
    "isions": 3930,
    "pap@@": 3931,
    "flas@@": 3932,
    "smo@@": 3933,
    "hyper@@": 3934,
    "mine": 3935,
    "restaurant": 3936,
    "husband": 3937,
    "cortex": 3938,
    "carto@@": 3939,
    "transpar@@": 3940,
    "screen": 3941,
    "Street": 3942,
    "Why": 3943,
    "dian": 3944,
    "psy@@": 3945,
    "addres@@": 3946,
    "smell": 3947,
    "traffic": 3948,
    "198@@": 3949,
    "fam@@": 3950,
    "func@@": 3951,
    "gery": 3952,
    "MR@@": 3953,
    "activ@@": 3954,
    "patterns": 3955,
    "higher": 3956,
    "rus": 3957,
    "ior": 3958,
    "repres@@": 3959,
    "buildings": 3960,
    "Martin": 3961,
    "connections": 3962,
    "neur@@": 3963,
    "conscious": 3964,
    "stimul@@": 3965,
    "organi@@": 3966,
    "success@@": 3967,
    "dreams": 3968,
    "associ@@": 3969,
    "infin@@": 3970,
    "sight": 3971,
    "250": 3972,
    "theater": 3973,
    "super@@": 3974,
    "liver": 3975,
    "pictures": 3976,
    "nam@@": 3977,
    "ental": 3978,
    "utter@@": 3979,
    "minds": 3980,
    "experiences": 3981,
    "detail": 3982,
    "trip": 3983,
    "alien": 3984,
    "ines@@": 3985,
    "visu@@": 3986,
    "lights": 3987,
    "ade@@": 3988,
    "figured": 3989,
    "swit@@": 3990,
    "demon@@": 3991,
    "stration": 3992,
    "note": 3993,
    "trick": 3994,
    "fish": 3995,
    "bel": 3996,
    "organs": 3997,
    "some@@": 3998,
    "vable": 3999,
    "nets": 4000,
    "chemicals": 4001,
    "cloud": 4002,
    "ow": 4003,
    "wings": 4004,
    "attac@@": 4005,
    "hit@@": 4006,
    "ending": 4007,
    "bottom": 4008,
    "uss": 4009,
    "arms": 4010,
    "stem": 4011,
    "effects": 4012,
    "sea": 4013,
    "pen": 4014,
    "invisible": 4015,
    "oms": 4016,
    "person@@": 4017,
    "install@@": 4018,
    "any@@": 4019,
    "tem@@": 4020,
    "thinks": 4021,
    "inn@@": 4022,
    "99": 4023,
    "ctive": 4024,
    "weird": 4025,
    "lim@@": 4026,
    "TED@@": 4027,
    "fabri@@": 4028,
    "direct": 4029,
    "discovery": 4030,
    "picked": 4031,
    "examples": 4032,
    "cky": 4033,
    "corner": 4034,
    "hen@@": 4035,
    "counter@@": 4036,
    "bin": 4037,
    "cs": 4038,
    "represent": 4039,
    "double": 4040,
    "ix": 4041,
    "hy": 4042,
    "genes": 4043,
    "creates": 4044,
    "replic@@": 4045,
    "production": 4046,
    "apart": 4047,
    "ough@@": 4048,
    "nan@@": 4049,
    "organized": 4050,
    "regul@@": 4051,
    "pur@@": 4052,
    "ple": 4053,
    "prot@@": 4054,
    "eins": 4055,
    "romos@@": 4056,
    "zo@@": 4057,
    "nuclear": 4058,
    "sau@@": 4059,
    "iden@@": 4060,
    "describe": 4061,
    "structures": 4062,
    "mir@@": 4063,
    "obviously": 4064,
    "kin@@": 4065,
    "rema@@": 4066,
    "dy@@": 4067,
    "tier": 4068,
    "researchers": 4069,
    "elimin@@": 4070,
    "suffering": 4071,
    "Ber@@": 4072,
    "process@@": 4073,
    "osen": 4074,
    "ines": 4075,
    "physics": 4076,
    "imm@@": 4077,
    "compar@@": 4078,
    "decade": 4079,
    "expon@@": 4080,
    "16@@": 4081,
    "initi@@": 4082,
    "diplom@@": 4083,
    "leaders": 4084,
    "degree": 4085,
    "office": 4086,
    "atory": 4087,
    "mathema@@": 4088,
    "quired": 4089,
    "cour@@": 4090,
    "tal@@": 4091,
    "mathematics": 4092,
    "verb@@": 4093,
    "languages": 4094,
    "average": 4095,
    "elem@@": 4096,
    "master": 4097,
    "harder": 4098,
    "extreme": 4099,
    "ama": 4100,
    "32": 4101,
    "sat": 4102,
    "graduate": 4103,
    "imag@@": 4104,
    "statisti@@": 4105,
    "metho@@": 4106,
    "principle": 4107,
    "Prin@@": 4108,
    "One": 4109,
    "easier": 4110,
    "statistics": 4111,
    "ticians": 4112,
    "interes@@": 4113,
    "resear@@": 4114,
    "cher": 4115,
    "ager": 4116,
    "achieve": 4117,
    "offer": 4118,
    "spar@@": 4119,
    "opportunity": 4120,
    "mu@@": 4121,
    "investi@@": 4122,
    "military": 4123,
    "sett@@": 4124,
    "profes@@": 4125,
    "rin@@": 4126,
    "thin@@": 4127,
    "categ@@": 4128,
    "atively": 4129,
    "egi@@": 4130,
    "quar@@": 4131,
    "sear@@": 4132,
    "follo@@": 4133,
    "vention": 4134,
    "ton@@": 4135,
    "sal@@": 4136,
    "cele@@": 4137,
    "letter": 4138,
    "center": 4139,
    "businesses": 4140,
    "domin@@": 4141,
    "competition": 4142,
    "narra@@": 4143,
    "operation": 4144,
    "agri@@": 4145,
    "wealth": 4146,
    "unt": 4147,
    "solved": 4148,
    "protein": 4149,
    "civili@@": 4150,
    "zations": 4151,
    "emp@@": 4152,
    "reser@@": 4153,
    "accoun@@": 4154,
    "stitu@@": 4155,
    "commer@@": 4156,
    "markets": 4157,
    "oper@@": 4158,
    "ow@@": 4159,
    "spee@@": 4160,
    "majority": 4161,
    "mma": 4162,
    "assu@@": 4163,
    "details": 4164,
    "nei@@": 4165,
    "tw@@": 4166,
    "enty": 4167,
    "Robert": 4168,
    "competi@@": 4169,
    "economic": 4170,
    "separate": 4171,
    "player": 4172,
    "las@@": 4173,
    "economics": 4174,
    "ject": 4175,
    "trials": 4176,
    "Asia": 4177,
    "fair": 4178,
    "fair@@": 4179,
    "Har@@": 4180,
    "late": 4181,
    "196@@": 4182,
    "0": 4183,
    "fis@@": 4184,
    "missing": 4185,
    "tes@@": 4186,
    "debate": 4187,
    "individuals": 4188,
    "pun@@": 4189,
    "shown": 4190,
    "societies": 4191,
    "helped": 4192,
    "recent": 4193,
    "Ben@@": 4194,
    "P": 4195,
    "port@@": 4196,
    "El@@": 4197,
    "ota": 4198,
    "Lin@@": 4199,
    "inc@@": 4200,
    "gg@@": 4201,
    "Ad@@": 4202,
    "Sen@@": 4203,
    "opened": 4204,
    "develop@@": 4205,
    "Bay": 4206,
    "Wikipedia": 4207,
    "Cy@@": 4208,
    "Os": 4209,
    "developing": 4210,
    "countries": 4211,
    "vic@@": 4212,
    "illi@@": 4213,
    "Tor@@": 4214,
    "link": 4215,
    "@": 4216,
    "sides": 4217,
    "civil": 4218,
    "Phili@@": 4219,
    "Kenya": 4220,
    "citizens": 4221,
    "cam@@": 4222,
    "devices": 4223,
    "MS": 4224,
    "evil": 4225,
    "Howard": 4226,
    "phen": 4227,
    "La@@": 4228,
    "archit@@": 4229,
    "ect": 4230,
    "Microsoft": 4231,
    "apping": 4232,
    "virtual": 4233,
    "3D": 4234,
    "ades": 4235,
    "dimensional": 4236,
    "launched": 4237,
    "local": 4238,
    "stories": 4239,
    "opp@@": 4240,
    "app": 4241,
    "Pi@@": 4242,
    "tops": 4243,
    "cars": 4244,
    "George": 4245,
    "spot": 4246,
    "hell": 4247,
    "G": 4248,
    "tis": 4249,
    "Wor@@": 4250,
    "deta@@": 4251,
    "\u00fc@@": 4252,
    "labor": 4253,
    "pay": 4254,
    "behavi@@": 4255,
    "moun@@": 4256,
    "mountain": 4257,
    "tains": 4258,
    "joy": 4259,
    "ros@@": 4260,
    "challen@@": 4261,
    "visit": 4262,
    "camp@@": 4263,
    "ables": 4264,
    "oss": 4265,
    "fru@@": 4266,
    "gos": 4267,
    "ould": 4268,
    "hic": 4269,
    "roll": 4270,
    "progress": 4271,
    "dig": 4272,
    "innov@@": 4273,
    "product": 4274,
    "CE@@": 4275,
    "protot@@": 4276,
    "news": 4277,
    "performance": 4278,
    "negative": 4279,
    "fur@@": 4280,
    "taste": 4281,
    "ug@@": 4282,
    "exter@@": 4283,
    "buil@@": 4284,
    "tough": 4285,
    "Adam": 4286,
    "mith": 4287,
    "effici@@": 4288,
    "increase": 4289,
    "economy": 4290,
    "situ@@": 4291,
    "decide": 4292,
    "etc": 4293,
    "happ@@": 4294,
    "mom": 4295,
    "Cam@@": 4296,
    "Viet@@": 4297,
    "commun@@": 4298,
    "conflict": 4299,
    "bom@@": 4300,
    "tural": 4301,
    "China": 4302,
    "gri@@": 4303,
    "killing": 4304,
    "nar@@": 4305,
    "soldiers": 4306,
    "II": 4307,
    "gust": 4308,
    "equivalent": 4309,
    "Res@@": 4310,
    "erve": 4311,
    "Bank": 4312,
    "bed": 4313,
    "vin@@": 4314,
    "forced": 4315,
    "concent@@": 4316,
    "spoke": 4317,
    "girls": 4318,
    "allows": 4319,
    "Cha@@": 4320,
    "Do@@": 4321,
    "Me@@": 4322,
    "Del@@": 4323,
    "Tri@@": 4324,
    "N.": 4325,
    "record": 4326,
    "elling": 4327,
    "depression": 4328,
    "Afghanistan": 4329,
    "confi@@": 4330,
    "poor@@": 4331,
    "17": 4332,
    "foreign": 4333,
    "confli@@": 4334,
    "govern@@": 4335,
    "organizations": 4336,
    "killed": 4337,
    "weapons": 4338,
    "tom": 4339,
    "ession": 4340,
    "Be@@": 4341,
    "amed": 4342,
    "horri@@": 4343,
    "easily": 4344,
    "tom@@": 4345,
    "ous@@": 4346,
    "const@@": 4347,
    "feelings": 4348,
    "expec@@": 4349,
    "mothers": 4350,
    "thers": 4351,
    "beat": 4352,
    "engage": 4353,
    "13": 4354,
    "gentle@@": 4355,
    "approach": 4356,
    "Min@@": 4357,
    "moder@@": 4358,
    "sever@@": 4359,
    "worse": 4360,
    "stres@@": 4361,
    "Nor@@": 4362,
    "immedi@@": 4363,
    "disc@@": 4364,
    "ara": 4365,
    "village": 4366,
    "spre@@": 4367,
    "ading": 4368,
    "Mis@@": 4369,
    "coal": 4370,
    "ak@@": 4371,
    "2000": 4372,
    "fossil": 4373,
    "gui@@": 4374,
    "strate": 4375,
    "mm": 4376,
    "grew": 4377,
    "fuel": 4378,
    "1,@@": 4379,
    "spac@@": 4380,
    "meters": 4381,
    "bul@@": 4382,
    "account": 4383,
    "K.": 4384,
    "eter": 4385,
    "bar": 4386,
    "Sah@@": 4387,
    "Z@@": 4388,
    "diversity": 4389,
    "Canada": 4390,
    "enormous": 4391,
    "esh": 4392,
    "ya": 4393,
    "India": 4394,
    "ticip@@": 4395,
    "solar": 4396,
    "England": 4397,
    "av@@": 4398,
    "anti": 4399,
    "power@@": 4400,
    "Spa@@": 4401,
    "diff@@": 4402,
    "vey": 4403,
    "Si@@": 4404,
    "ours": 4405,
    "demand": 4406,
    "vehic@@": 4407,
    "We@@": 4408,
    "drive": 4409,
    "temperature": 4410,
    "tate": 4411,
    "sad": 4412,
    "Swe@@": 4413,
    "London": 4414,
    "heat": 4415,
    "sustainable": 4416,
    "bear": 4417,
    "stron@@": 4418,
    "dots": 4419,
    "ales": 4420,
    "fourth": 4421,
    "Gre@@": 4422,
    "conversation": 4423,
    "sue": 4424,
    "speech": 4425,
    "dies": 4426,
    "awar@@": 4427,
    "Pri@@": 4428,
    "ela": 4429,
    "Sy@@": 4430,
    "outh": 4431,
    "ches@@": 4432,
    "childhood": 4433,
    "Times": 4434,
    "enth@@": 4435,
    "streng@@": 4436,
    "soli@@": 4437,
    "J": 4438,
    "atten@@": 4439,
    "lessons": 4440,
    "lin": 4441,
    "dam@@": 4442,
    "Angeles": 4443,
    "flexi@@": 4444,
    "vulner@@": 4445,
    "dimensions": 4446,
    "leadership": 4447,
    "osity": 4448,
    "Ter@@": 4449,
    "bread": 4450,
    "fication": 4451,
    "condi@@": 4452,
    "hop@@": 4453,
    "spaces": 4454,
    "ury": 4455,
    "titu@@": 4456,
    "thesis": 4457,
    "wisdom": 4458,
    "respe@@": 4459,
    "hous@@": 4460,
    "olds": 4461,
    "sens@@": 4462,
    "cognitive": 4463,
    "differences": 4464,
    "ans@@": 4465,
    "oral": 4466,
    "pattern": 4467,
    "alize": 4468,
    "paying": 4469,
    "unger": 4470,
    "graphic": 4471,
    "bil@@": 4472,
    "uri@@": 4473,
    "194@@": 4474,
    "innovative": 4475,
    "une": 4476,
    "Ac@@": 4477,
    "Vi@@": 4478,
    "architecture": 4479,
    "innovation": 4480,
    "artificial": 4481,
    "send": 4482,
    "eline": 4483,
    "grandmother": 4484,
    "plat@@": 4485,
    "acceler@@": 4486,
    "pet": 4487,
    "bed@@": 4488,
    "L": 4489,
    "CA@@": 4490,
    "international": 4491,
    "clinical": 4492,
    "ur": 4493,
    "econom@@": 4494,
    "dealing": 4495,
    "ED": 4496,
    "Mat@@": 4497,
    "ye@@": 4498,
    "proje@@": 4499,
    "gor@@": 4500,
    "crimin@@": 4501,
    "tro@@": 4502,
    "infrastructure": 4503,
    "service": 4504,
    "James": 4505,
    "ne": 4506,
    "ard@@": 4507,
    "Bl@@": 4508,
    "Ex@@": 4509,
    "rou@@": 4510,
    "Nigeri@@": 4511,
    "campaign": 4512,
    "favor@@": 4513,
    "V": 4514,
    "coffee": 4515,
    "Win@@": 4516,
    "forget": 4517,
    "ser": 4518,
    "incre@@": 4519,
    "ister": 4520,
    "liked": 4521,
    "Facebook": 4522,
    "Sk@@": 4523,
    "report": 4524,
    "tele@@": 4525,
    "high@@": 4526,
    "Twitter": 4527,
    "smar@@": 4528,
    "selling": 4529,
    "gation": 4530,
    "gang": 4531,
    "27": 4532,
    "que": 4533,
    "airplane": 4534,
    "iPhone": 4535,
    "aming": 4536,
    "Hy@@": 4537,
    "SE@@": 4538,
    "X@@": 4539,
    "Z": 4540,
    "hot@@": 4541,
    "ision": 4542,
    "open@@": 4543,
    "conven@@": 4544,
    "priv@@": 4545,
    "2003": 4546,
    "dinosau@@": 4547,
    "emis@@": 4548,
    "hypo@@": 4549,
    "babies": 4550,
    "iel@@": 4551,
    "ich": 4552,
    "oned": 4553,
    "Foundation": 4554,
    "former": 4555,
    "tz@@": 4556,
    "bone": 4557,
    "appear": 4558,
    "ea@@": 4559,
    "female": 4560,
    "tissue": 4561,
    "gn@@": 4562,
    "character": 4563,
    "coll@@": 4564,
    "cken": 4565,
    "modi@@": 4566,
    "Mal@@": 4567,
    "definitely": 4568,
    "gene": 4569,
    "Mad@@": 4570,
    "ison": 4571,
    "colleag@@": 4572,
    "Lar@@": 4573,
    "Mc@@": 4574,
    "agre@@": 4575,
    "rid": 4576,
    "hen": 4577,
    "Chi@@": 4578,
    "pig@@": 4579,
    "friend@@": 4580,
    "Gi@@": 4581,
    "cer": 4582,
    "sold": 4583,
    "fact@@": 4584,
    "round": 4585,
    "eding": 4586,
    "stat@@": 4587,
    "obes@@": 4588,
    "inves@@": 4589,
    "restau@@": 4590,
    "rants": 4591,
    "rapi@@": 4592,
    "nine": 4593,
    "12@@": 4594,
    "gst": 4595,
    "associated": 4596,
    "gry": 4597,
    "corpor@@": 4598,
    "sand@@": 4599,
    "Pakistan": 4600,
    "farmers": 4601,
    "fic@@": 4602,
    "bet": 4603,
    "heads": 4604,
    "kid@@": 4605,
    "ji@@": 4606,
    "fic": 4607,
    "utes": 4608,
    "ero@@": 4609,
    "ogra@@": 4610,
    "ki@@": 4611,
    "glob@@": 4612,
    "celebra@@": 4613,
    "secre@@": 4614,
    "secret": 4615,
    "flow": 4616,
    "gue": 4617,
    "ik@@": 4618,
    "ardo": 4619,
    "Cap@@": 4620,
    "spi@@": 4621,
    "keys": 4622,
    "French": 4623,
    "Frank": 4624,
    "Ab@@": 4625,
    "da": 4626,
    "Bur@@": 4627,
    "ba": 4628,
    "aro@@": 4629,
    "oh@@": 4630,
    "Richard": 4631,
    "lying": 4632,
    "Saturn": 4633,
    "named": 4634,
    "ean": 4635,
    "ier@@": 4636,
    "flat": 4637,
    "jud@@": 4638,
    "abilities": 4639,
    "Ke@@": 4640,
    "island": 4641,
    "John@@": 4642,
    "ra": 4643,
    "Ju@@": 4644,
    "leg": 4645,
    "elt": 4646,
    "lag": 4647,
    "Tit@@": 4648,
    "photograp@@": 4649,
    "photograph@@": 4650,
    "aus@@": 4651,
    "Fi@@": 4652,
    "Gol@@": 4653,
    "partic@@": 4654,
    "Mol@@": 4655,
    "beauty": 4656,
    "symmet@@": 4657,
    "enting": 4658,
    "sequ@@": 4659,
    "ored": 4660,
    "wea@@": 4661,
    "Na@@": 4662,
    "titude": 4663,
    "algorith@@": 4664,
    "impossible": 4665,
    "affected": 4666,
    "AR@@": 4667,
    "dependent": 4668,
    "financial": 4669,
    "uring": 4670,
    "consequences": 4671,
    "bers": 4672,
    "eah": 4673,
    "dangerous": 4674,
    "ald": 4675,
    "expl@@": 4676,
    "September": 4677,
    "San@@": 4678,
    "Brazi@@": 4679,
    "Iraq": 4680,
    "General": 4681,
    "gress": 4682,
    "destru@@": 4683,
    "Korea": 4684,
    "enem@@": 4685,
    "ban": 4686,
    "simil@@": 4687,
    "arly": 4688,
    "influence": 4689,
    "tremendous": 4690,
    "theore@@": 4691,
    "%": 4692,
    "Jer@@": 4693,
    "pper": 4694,
    "26": 4695,
    "gency": 4696,
    "members": 4697,
    "\u00eb@@": 4698,
    "sharks": 4699,
    "ograp@@": 4700,
    "whenever": 4701,
    "fantas@@": 4702,
    "Hollywood": 4703,
    "designer": 4704,
    "particles": 4705,
    "magnetic": 4706,
    "oceans": 4707,
    "hes": 4708,
    "Atlan@@": 4709,
    "bo": 4710,
    "So": 4711,
    "Pacific": 4712,
    "vehicle": 4713,
    "cutting": 4714,
    "Ser@@": 4715,
    "ham@@": 4716,
    "stone": 4717,
    "aster": 4718,
    "sing@@": 4719,
    "tan": 4720,
    "ley": 4721,
    "Mu@@": 4722,
    "seas@@": 4723,
    "publi@@": 4724,
    "wander@@": 4725,
    "counter": 4726,
    "by@@": 4727,
    "tar": 4728,
    "bridge": 4729,
    "elements": 4730,
    "establ@@": 4731,
    "aring": 4732,
    "Wol@@": 4733,
    "poli@@": 4734,
    "Art": 4735,
    "amin": 4736,
    "bine": 4737,
    "proper@@": 4738,
    "22": 4739,
    "hate": 4740,
    "shall": 4741,
    "75": 4742,
    "vember": 4743,
    "nes@@": 4744,
    "00": 4745,
    "Chris": 4746,
    "vor": 4747,
    "Man": 4748,
    "esses": 4749,
    "itation": 4750,
    "bus": 4751,
    "con": 4752,
    "hair": 4753,
    "isible": 4754,
    "trade": 4755,
    "photographs": 4756,
    "studio": 4757,
    "Y": 4758,
    "og": 4759,
    "zer": 4760,
    "That": 4761,
    "ob": 4762,
    "ang@@": 4763,
    "tz": 4764,
    "contra@@": 4765,
    "pop": 4766,
    "art@@": 4767,
    "boat": 4768,
    "sions": 4769,
    "approach@@": 4770,
    "less@@": 4771,
    "toi@@": 4772,
    "seat": 4773,
    "rules": 4774,
    "vor@@": 4775,
    "gin@@": 4776,
    "mile": 4777,
    "bab@@": 4778,
    "electro@@": 4779,
    "jump": 4780,
    "practical": 4781,
    "curi@@": 4782,
    "hit": 4783,
    "fund@@": 4784,
    "acade@@": 4785,
    "ken": 4786,
    "neuros@@": 4787,
    "cience": 4788,
    "thoughts": 4789,
    "quali@@": 4790,
    "Br@@": 4791,
    "eting": 4792,
    "temp@@": 4793,
    "King": 4794,
    "geni@@": 4795,
    "eer": 4796,
    "Ben": 4797,
    "\u00e8@@": 4798,
    "ference": 4799,
    "plate": 4800,
    "quid": 4801,
    "sation": 4802,
    "bes@@": 4803,
    "fla@@": 4804,
    "sugar": 4805,
    "mel@@": 4806,
    "ices": 4807,
    "chem@@": 4808,
    "verage": 4809,
    "ney": 4810,
    "rob@@": 4811,
    "hi": 4812,
    "bai": 4813,
    "TV": 4814,
    "Ne@@": 4815,
    "recy@@": 4816,
    "Ra@@": 4817,
    "unt@@": 4818,
    "agen@@": 4819,
    "\u00f6@@": 4820,
    "ghtly": 4821,
    "Ja@@": 4822,
    "fortunately": 4823,
    "oxy@@": 4824,
    "alls": 4825,
    "Ah": 4826,
    "tries": 4827,
    "aptop": 4828,
    "robo@@": 4829,
    "800": 4830,
    "surprised": 4831,
    "skelet@@": 4832,
    "AIDS": 4833,
    "HIV": 4834,
    "Bra@@": 4835,
    "za@@": 4836,
    "ville": 4837,
    "African": 4838,
    "remote": 4839,
    "amer@@": 4840,
    "ee": 4841,
    "surprising": 4842,
    "minim@@": 4843,
    "Bush": 4844,
    "atives": 4845,
    "shoul@@": 4846,
    "fau@@": 4847,
    "tas@@": 4848,
    "radio": 4849,
    "vill@@": 4850,
    "brand": 4851,
    "urban": 4852,
    "Global": 4853,
    "sey": 4854,
    "moment@@": 4855,
    "Kor@@": 4856,
    "caus@@": 4857,
    "Pres@@": 4858,
    "ident": 4859,
    "via": 4860,
    "#": 4861,
    "van": 4862,
    "Willi@@": 4863,
    "worst": 4864,
    "Obama": 4865,
    "tell@@": 4866,
    "Nigeria": 4867,
    "Fin@@": 4868,
    "Afri@@": 4869,
    "ami@@": 4870,
    "flight": 4871,
    "gin": 4872,
    "houses": 4873,
    "mous": 4874,
    "continent": 4875,
    "hos@@": 4876,
    "yer": 4877,
    "Wal@@": 4878,
    "Q@@": 4879,
    "emen": 4880,
    "sector": 4881,
    "decision": 4882,
    "matters": 4883,
    "mas@@": 4884,
    "certain@@": 4885,
    "fort": 4886,
    "tori@@": 4887,
    "ual": 4888,
    "Her@@": 4889,
    "wher@@": 4890,
    "expe@@": 4891,
    "journ@@": 4892,
    "muscle": 4893,
    "weight": 4894,
    "battery": 4895,
    "Tes@@": 4896,
    "120": 4897,
    "absolute": 4898,
    "minister": 4899,
    "invest": 4900,
    "Q": 4901,
    "optim@@": 4902,
    "Indi@@": 4903,
    "700": 4904,
    "Ken@@": 4905,
    "ament": 4906,
    "sla@@": 4907,
    "argum@@": 4908,
    "ull": 4909,
    "univers@@": 4910,
    "Dar@@": 4911,
    "tian": 4912,
    "probab@@": 4913,
    "marri@@": 4914,
    "invited": 4915,
    "kins": 4916,
    "legi@@": 4917,
    "Republi@@": 4918,
    "Dem@@": 4919,
    "teach@@": 4920,
    "Ba@@": 4921,
    "Nat@@": 4922,
    "Musli@@": 4923,
    "Budd@@": 4924,
    "ried": 4925,
    "mortality": 4926,
    "consciousness": 4927,
    "models": 4928,
    "lik@@": 4929,
    "ly@@": 4930,
    "pati@@": 4931,
    "mysteri@@": 4932,
    "fashion": 4933,
    "Gor@@": 4934,
    "-@@": 4935,
    "daily": 4936,
    "Gen@@": 4937,
    "compu@@": 4938,
    "ural": 4939,
    "links": 4940,
    "aten@@": 4941,
    "malaria": 4942,
    "ships": 4943,
    "ja@@": 4944,
    "corruption": 4945,
    "28": 4946,
    "aid": 4947,
    "invest@@": 4948,
    "income": 4949,
    "budget": 4950,
    "DP": 4951,
    "investment": 4952,
    "eleph@@": 4953,
    "neighborhood": 4954,
    "emplo@@": 4955,
    "are@@": 4956,
    "wand@@": 4957,
    "ala": 4958,
    "terror@@": 4959,
    "mut@@": 4960,
    "vacc@@": 4961,
    "lung": 4962,
    "neu@@": 4963,
    "plas@@": 4964,
    "lat@@": 4965,
    "eth": 4966,
    "hai": 4967,
    "bin@@": 4968,
    "ote@@": 4969,
    "virtu@@": 4970,
    "gut": 4971,
    "roman@@": 4972,
    "ka": 4973,
    "21@@": 4974,
    "Tony": 4975,
    "1960": 4976,
    "Mand@@": 4977,
    "orders": 4978,
    "entrepren@@": 4979,
    "Ghana": 4980,
    "controlled": 4981,
    "Scot@@": 4982,
    "iel": 4983,
    "Net@@": 4984,
    "phan@@": 4985,
    "Ford": 4986,
    "run@@": 4987,
    "partner": 4988,
    "choices": 4989,
    "rat": 4990,
    "affect": 4991,
    "affec@@": 4992,
    "va": 4993,
    "dolph@@": 4994,
    "ath@@": 4995,
    "Fo@@": 4996,
    "Gl@@": 4997,
    "systema@@": 4998,
    "Sa@@": 4999,
    "actor": 5000,
    "ctor": 5001,
    "genom@@": 5002,
    "nervous": 5003,
    "C.": 5004,
    "molecule": 5005,
    "ett@@": 5006,
    "cially": 5007,
    "Steve": 5008,
    "R": 5009,
    "Olymp@@": 5010,
    "warm": 5011,
    "fat": 5012,
    "spr@@": 5013,
    "Jon@@": 5014,
    ")": 5015,
    "olo@@": 5016,
    "cau@@": 5017,
    "epide@@": 5018,
    "Tom": 5019,
    "ov@@": 5020,
    "osi@@": 5021,
    "chair": 5022,
    "Uganda": 5023,
    "negoti@@": 5024,
    "enga@@": 5025,
    "gement": 5026,
    "ulti@@": 5027,
    "Ara@@": 5028,
    "etry": 5029,
    "iP@@": 5030,
    "sport": 5031,
    "hren@@": 5032,
    "tie": 5033,
    "Bron@@": 5034,
    "wel@@": 5035,
    "In": 5036,
    "Ku@@": 5037,
    "than@@": 5038,
    "tum": 5039,
    "utter": 5040,
    "ai": 5041,
    "motor": 5042,
    "ha": 5043,
    "lucky": 5044,
    "fr@@": 5045,
    "suit": 5046,
    "intervie@@": 5047,
    "\u00e1@@": 5048,
    "married": 5049,
    "alog@@": 5050,
    "vir@@": 5051,
    "Tra@@": 5052,
    "architec@@": 5053,
    "blu@@": 5054,
    "vered": 5055,
    "Rock@@": 5056,
    "planning": 5057,
    "finger": 5058,
    "Han@@": 5059,
    "temper@@": 5060,
    "mote": 5061,
    "ogen@@": 5062,
    "sculp@@": 5063,
    "Bal@@": 5064,
    "Bos@@": 5065,
    "mption": 5066,
    "TEDTal@@": 5067,
    "Mich@@": 5068,
    "Rob@@": 5069,
    "cin": 5070,
    "Museum": 5071,
    "aller@@": 5072,
    "dle": 5073,
    "spectrum": 5074,
    "function": 5075,
    "Derek": 5076,
    "F": 5077,
    "Tas@@": 5078,
    "tribu@@": 5079,
    "pressure": 5080,
    "Jos@@": 5081,
    "entrepreneur@@": 5082,
    "gir@@": 5083,
    "Don@@": 5084,
    "Bab@@": 5085,
    "ace@@": 5086,
    "Hen@@": 5087,
    "Pol@@": 5088,
    "Red@@": 5089,
    "Oxford": 5090,
    "hyth@@": 5091,
    "raft": 5092,
    "lam@@": 5093,
    "ste": 5094,
    "breast": 5095,
    "fill@@": 5096,
    "Ni@@": 5097,
    "eller": 5098,
    "agina": 5099,
    "ens@@": 5100,
    "ank@@": 5101,
    "hier@@": 5102,
    "engine@@": 5103,
    "abetes": 5104,
    "Antar@@": 5105,
    "tag": 5106,
    "Peter": 5107,
    "tech": 5108,
    "Air@@": 5109,
    "sul@@": 5110,
    "U": 5111,
    "osph@@": 5112,
    "neighbor@@": 5113,
    "\u00f4@@": 5114,
    "(": 5115,
    "\u00b2": 5116,
    "\u00e9@@": 5117,
    "\u00e7@@": 5118,
    "\u00e3@@": 5119,
    "pengu@@": 5120,
    "Bei@@": 5121,
    "\u221a": 5122,
    "\u00b1": 5123,
    "\u00f1@@": 5124,
    "\u00f3@@": 5125,
    "Cra@@": 5126,
    "Lau@@": 5127,
    "\u00f8@@": 5128,
    "geri@@": 5129,
    "Gand@@": 5130,
    "nee": 5131,
    "trin@@": 5132,
    "Tre@@": 5133,
    "q": 5134,
    "Pa@@": 5135,
    "\u00e2@@": 5136,
    "anderth@@": 5137,
    "j": 5138,
    "\u00ef@@": 5139,
    "arts": 5140,
    "DH": 5141,
    "\u00c9@@": 5142,
    "\u0101@@": 5143,
    "SW": 5144,
    "^": 5145,
    "\u00e4@@": 5146,
    "Higgs": 5147,
    "\u00e8": 5148,
    "\u00e0": 5149,
    "*": 5150,
    "\u00fc": 5151,
    "\u00e2": 5152,
    "\u0080": 5153,
    "\u0094": 5154,
    "\u00fa@@": 5155,
    "\u00a3": 5156,
    "\u20ac": 5157,
    "\u9001@@": 5158,
    "\u4f60@@": 5159,
    "\u8471": 5160,
    "\u0102@@": 5161,
    "\u0164": 5162,
    "\u0113": 5163,
    "\u0e2d@@": 5164,
    "\u0e23": 5165,
    "\u0e48": 5166,
    "\u0e22@@": 5167,
    "\u0e22": 5168,
    "\\": 5169,
    "BF": 5170,
    "\u0107": 5171
  }
}