{
  "<EOS>": 0,
  "<GO>": 1,
  "<UNK>": 2,
  ",": 3,
  ".": 4,
  "the": 5,
  "and": 6,
  "in": 7,
  "und": 8,
  "to": 9,
  "die": 10,
  "of": 11,
  "a": 12,
  "that": 13,
  "I": 14,
  "der": 15,
  "it": 16,
  "es": 17,
  "das": 18,
  "&quot;": 19,
  "ich": 20,
  "you": 21,
  "ist": 22,
  "is": 23,
  "we": 24,
  "wir": 25,
  "&apos;s": 26,
  "zu": 27,
  "so": 28,
  "sie": 29,
  "was": 30,
  "this": 31,
  "@-@": 32,
  "?": 33,
  "ein": 34,
  "an": 35,
  "--": 36,
  "eine": 37,
  "von": 38,
  "den": 39,
  ":": 40,
  "dass": 41,
  "nicht": 42,
  "on": 43,
  "they": 44,
  "er": 45,
  "mit": 46,
  "for": 47,
  "are": 48,
  "wie": 49,
  "auf": 50,
  "Sie": 51,
  "have": 52,
  "what": 53,
  "but": 54,
  "man": 55,
  "with": 56,
  "can": 57,
  "all": 58,
  "sich": 59,
  "sind": 60,
  "für": 61,
  "aber": 62,
  "haben": 63,
  "as": 64,
  "als": 65,
  "&apos;t": 66,
  "be": 67,
  "wenn": 68,
  "at": 69,
  "there": 70,
  "about": 71,
  "also": 72,
  "um": 73,
  "-": 74,
  "war": 75,
  "one": 76,
  "diese": 77,
  "do": 78,
  "not": 79,
  "or": 80,
  "&apos;re": 81,
  "im": 82,
  "my": 83,
  "people": 84,
  "an@@": 85,
  "er@@": 86,
  "like": 87,
  "he": 88,
  "dem": 89,
  "if": 90,
  "from": 91,
  "einen": 92,
  "re@@": 93,
  "ver@@": 94,
  "k@@": 95,
  "s": 96,
  "now": 97,
  "me": 98,
  "uns": 99,
  "des": 100,
  "in@@": 101,
  "these": 102,
  "s@@": 103,
  "können": 104,
  "just": 105,
  "our": 106,
  "hier": 107,
  "werden": 108,
  "very": 109,
  "oder": 110,
  "aus": 111,
  "un@@": 112,
  "t@@": 113,
  "te": 114,
  "hat": 115,
  "because": 116,
  "S@@": 117,
  "when": 118,
  "en@@": 119,
  "out": 120,
  "by": 121,
  "über": 122,
  "ing": 123,
  "b@@": 124,
  "up": 125,
  "us": 126,
  "einer": 127,
  "auch": 128,
  "how": 129,
  "going": 130,
  "ed": 131,
  "know": 132,
  "d@@": 133,
  "them": 134,
  "here": 135,
  "be@@": 136,
  "einem": 137,
  "kann": 138,
  "t": 139,
  "dann": 140,
  "en": 141,
  "sehr": 142,
  "B@@": 143,
  "e@@": 144,
  "ten": 145,
  "more": 146,
  "see": 147,
  "m@@": 148,
  "which": 149,
  "wird": 150,
  "think": 151,
  "nur": 152,
  "had": 153,
  "c@@": 154,
  "f@@": 155,
  "p@@": 156,
  "A@@": 157,
  "gibt": 158,
  "g@@": 159,
  "your": 160,
  "really": 161,
  "get": 162,
  "T@@": 163,
  "ch@@": 164,
  "Menschen": 165,
  "who": 166,
  "were": 167,
  "will": 168,
  "then": 169,
  "their": 170,
  "mich": 171,
  "D@@": 172,
  "would": 173,
  "sehen": 174,
  "&apos;ve": 175,
  "e": 176,
  "sein": 177,
  "ab@@": 178,
  "ge@@": 179,
  "K@@": 180,
  "time": 181,
  "z@@": 182,
  "&apos;m": 183,
  "st@@": 184,
  "h@@": 185,
  "some": 186,
  "dieser": 187,
  "etwas": 188,
  "H@@": 189,
  "R@@": 190,
  "o": 191,
  "M@@": 192,
  "F@@": 193,
  "way": 194,
  "y": 195,
  "noch": 196,
  "nach": 197,
  "y@@": 198,
  "world": 199,
  "am": 200,
  "has": 201,
  "don": 202,
  "habe": 203,
  "actually": 204,
  "a@@": 205,
  "P@@": 206,
  "L@@": 207,
  "i@@": 208,
  "r@@": 209,
  "into": 210,
  "al": 211,
  "go": 212,
  "mir": 213,
  "vor": 214,
  "where": 215,
  "things": 216,
  "di@@": 217,
  "o@@": 218,
  "ti@@": 219,
  "bei": 220,
  "C@@": 221,
  "ung": 222,
  "al@@": 223,
  ";": 224,
  "years": 225,
  "l@@": 226,
  "alle": 227,
  "u@@": 228,
  "el@@": 229,
  "mehr": 230,
  "E@@": 231,
  "other": 232,
  "ein@@": 233,
  "n@@": 234,
  "li@@": 235,
  "ar@@": 236,
  "de": 237,
  "Welt": 238,
  "ter": 239,
  "ri@@": 240,
  "want": 241,
  "W@@": 242,
  "Ver@@": 243,
  "well": 244,
  "could": 245,
  "machen": 246,
  "right": 247,
  "no": 248,
  "aus@@": 249,
  "gen": 250,
  "N@@": 251,
  "meine": 252,
  "make": 253,
  "zum": 254,
  "da": 255,
  "i": 256,
  "G@@": 257,
  "been": 258,
  "said": 259,
  "ation": 260,
  "dies": 261,
  "on@@": 262,
  "An@@": 263,
  "weil": 264,
  "w@@": 265,
  "Ihnen": 266,
  "at@@": 267,
  "or@@": 268,
  "ge": 269,
  "nun": 270,
  "wurde": 271,
  "wirklich": 272,
  "dieses": 273,
  "two": 274,
  "something": 275,
  "sch@@": 276,
  "end": 277,
  "g": 278,
  "she": 279,
  "first": 280,
  "than": 281,
  "immer": 282,
  "v@@": 283,
  "durch": 284,
  "thing": 285,
  "es@@": 286,
  "le@@": 287,
  "much": 288,
  "ent@@": 289,
  "those": 290,
  "de@@": 291,
  "look": 292,
  "tun": 293,
  "m": 294,
  "little": 295,
  "unsere": 296,
  "got": 297,
  "ts": 298,
  "Sch@@": 299,
  "his": 300,
  "auf@@": 301,
  "jetzt": 302,
  "um@@": 303,
  "le": 304,
  "her": 305,
  "able": 306,
  "J@@": 307,
  "over": 308,
  "sp@@": 309,
  "back": 310,
  "viel": 311,
  "work": 312,
  "&apos;": 313,
  "tion": 314,
  "say": 315,
  "life": 316,
  "hatte": 317,
  "d": 318,
  "ihre": 319,
  "keine": 320,
  "is@@": 321,
  "sagen": 322,
  "viele": 323,
  "ch": 324,
  "most": 325,
  "Leute": 326,
  "kind": 327,
  "take": 328,
  "ie": 329,
  "diesem": 330,
  "wissen": 331,
  "only": 332,
  "eines": 333,
  "it@@": 334,
  "th@@": 335,
  "ungen": 336,
  "Zeit": 337,
  "as@@": 338,
  "even": 339,
  "I@@": 340,
  "denn": 341,
  "ul@@": 342,
  "many": 343,
  "ro@@": 344,
  "si@@": 345,
  "sagte": 346,
  "Dinge": 347,
  "diesen": 348,
  "ter@@": 349,
  "Leben": 350,
  "einfach": 351,
  "lot": 352,
  "zwei": 353,
  "need": 354,
  "op@@": 355,
  "ihr": 356,
  "did": 357,
  "waren": 358,
  "alles": 359,
  "ers": 360,
  "ate": 361,
  "k": 362,
  "eren": 363,
  "ischen": 364,
  "ent": 365,
  "müssen": 366,
  "au@@": 367,
  "am@@": 368,
  "ä@@": 369,
  "p": 370,
  "n": 371,
  "ert": 372,
  "se": 373,
  "new": 374,
  "good": 375,
  "Art": 376,
  "l": 377,
  "chen": 378,
  "bin": 379,
  "Jahren": 380,
  "ma@@": 381,
  "vor@@": 382,
  "around": 383,
  "ke": 384,
  "ad@@": 385,
  "&apos;ll": 386,
  "andere": 387,
  "wo": 388,
  "Z@@": 389,
  "down": 390,
  "let": 391,
  "et@@": 392,
  "come": 393,
  "du": 394,
  "use": 395,
  "geht": 396,
  "st": 397,
  "O@@": 398,
  "men": 399,
  "ur@@": 400,
  "why": 401,
  "mein": 402,
  "different": 403,
  "anderen": 404,
  "ted": 405,
  "damit": 406,
  "ei@@": 407,
  "zu@@": 408,
  "her@@": 409,
  "ische": 410,
  "same": 411,
  "gehen": 412,
  "würde": 413,
  "through": 414,
  "em@@": 415,
  "über@@": 416,
  "os@@": 417,
  "ck@@": 418,
  "zur": 419,
  "bis": 420,
  "every": 421,
  "vielleicht": 422,
  "ol@@": 423,
  "day": 424,
  "its": 425,
  "ap@@": 426,
  "!": 427,
  "put": 428,
  "j@@": 429,
  "gut": 430,
  "dis@@": 431,
  "ated": 432,
  "pro@@": 433,
  "h": 434,
  "three": 435,
  "being": 436,
  "doing": 437,
  "ni@@": 438,
  "om@@": 439,
  "ra@@": 440,
  "Jahre": 441,
  "selbst": 442,
  "lo@@": 443,
  "ern": 444,
  "St@@": 445,
  "kommen": 446,
  "qu@@": 447,
  "ck": 448,
  "year": 449,
  "lich": 450,
  "ken": 451,
  "ac@@": 452,
  "geben": 453,
  "se@@": 454,
  "heute": 455,
  "10": 456,
  "co@@": 457,
  "muss": 458,
  "any": 459,
  "called": 460,
  "con@@": 461,
  "schon": 462,
  "der@@": 463,
  "tr@@": 464,
  "ly": 465,
  "V@@": 466,
  "vi@@": 467,
  "ges@@": 468,
  "im@@": 469,
  "einige": 470,
  "ber@@": 471,
  "warum": 472,
  "ger": 473,
  "tra@@": 474,
  "ds": 475,
  "&apos;d": 476,
  "system": 477,
  "möchte": 478,
  "ü@@": 479,
  "In@@": 480,
  "ja": 481,
  "made": 482,
  "Er@@": 483,
  "el": 484,
  "em": 485,
  "percent": 486,
  "tatsächlich": 487,
  "ö@@": 488,
  "f": 489,
  "wieder": 490,
  "ag@@": 491,
  "il@@": 492,
  "ihnen": 493,
  "mal": 494,
  "ins": 495,
  "lassen": 496,
  "talk": 497,
  "today": 498,
  "b": 499,
  "Vor@@": 500,
  "gi@@": 501,
  "Geschichte": 502,
  "bo@@": 503,
  "after": 504,
  "Be@@": 505,
  "tell": 506,
  "bi@@": 507,
  "davon": 508,
  "ob": 509,
  "ine": 510,
  "ar": 511,
  "nen": 512,
  "great": 513,
  "gt": 514,
  "dort": 515,
  "denken": 516,
  "ale": 517,
  "ste": 518,
  "ganz": 519,
  "ger@@": 520,
  "Ein@@": 521,
  "human": 522,
  "ve": 523,
  "ir@@": 524,
  "change": 525,
  "liche": 526,
  "fact": 527,
  "off": 528,
  "ging": 529,
  "sten": 530,
  "Ge@@": 531,
  "genau": 532,
  "par@@": 533,
  "ta@@": 534,
  "Kinder": 535,
  "sa@@": 536,
  "own": 537,
  "te@@": 538,
  "find": 539,
  "another": 540,
  "Aus@@": 541,
  "drei": 542,
  "ex@@": 543,
  "hatten": 544,
  "ce": 545,
  "big": 546,
  "nehmen": 547,
  "lichen": 548,
  "seine": 549,
  "ot@@": 550,
  "Re@@": 551,
  "darüber": 552,
  "den@@": 553,
  "20": 554,
  "Ab@@": 555,
  "ks": 556,
  "gen@@": 557,
  "la@@": 558,
  "last": 559,
  "didn": 560,
  "hi@@": 561,
  "kl@@": 562,
  "ty": 563,
  "thank": 564,
  "idea": 565,
  "könnte": 566,
  "to@@": 567,
  "per@@": 568,
  "ihn": 569,
  "werde": 570,
  "ou@@": 571,
  "pl@@": 572,
  "old": 573,
  "age": 574,
  "went": 575,
  "wollen": 576,
  "mi@@": 577,
  "thought": 578,
  "before": 579,
  "give": 580,
  "should": 581,
  "ting": 582,
  "paar": 583,
  "che": 584,
  "started": 585,
  "z": 586,
  "x": 587,
  "meiner": 588,
  "Jahr": 589,
  "for@@": 590,
  "bit": 591,
  "course": 592,
  "ungs@@": 593,
  "gr@@": 594,
  "problem": 595,
  "us@@": 596,
  "ally": 597,
  "story": 598,
  "sh@@": 599,
  "place": 600,
  "again": 601,
  "gel@@": 602,
  "finden": 603,
  "stellen": 604,
  "wurden": 605,
  "ff@@": 606,
  "est": 607,
  "better": 608,
  "never": 609,
  "res@@": 610,
  "macht": 611,
  "unter@@": 612,
  "kommt": 613,
  "ten@@": 614,
  "important": 615,
  "bl@@": 616,
  "show": 617,
  "ben": 618,
  "tu@@": 619,
  "Sp@@": 620,
  "gab": 621,
  "pre@@": 622,
  "does": 623,
  "each": 624,
  "inter@@": 625,
  "tet": 626,
  "still": 627,
  ".@@": 628,
  "ant": 629,
  "denen": 630,
  "3@@": 631,
  "während": 632,
  "next": 633,
  "start": 634,
  "Beispiel": 635,
  "zwischen": 636,
  "jeder": 637,
  "...": 638,
  "50": 639,
  "part": 640,
  "him": 641,
  "gemacht": 642,
  "gra@@": 643,
  "water": 644,
  "ous": 645,
  "long": 646,
  "ic": 647,
  "tes": 648,
  "dazu": 649,
  "denke": 650,
  "unter": 651,
  "might": 652,
  "used": 653,
  "brain": 654,
  "together": 655,
  "ago": 656,
  "ating": 657,
  "tive": 658,
  "Problem": 659,
  "vom": 660,
  "vielen": 661,
  "unserer": 662,
  "ne": 663,
  "wäre": 664,
  "ellen": 665,
  "mis@@": 666,
  "Ar@@": 667,
  "br@@": 668,
  "ak@@": 669,
  "ig@@": 670,
  "neue": 671,
  "technology": 672,
  "kein": 673,
  "su@@": 674,
  "ft": 675,
  "came": 676,
  "sondern": 677,
  "po@@": 678,
  "natürlich": 679,
  "sogar": 680,
  "unser": 681,
  "kt": 682,
  "sen": 683,
  "Teil": 684,
  "ere": 685,
  "doch": 686,
  "zeigen": 687,
  "ing@@": 688,
  "U@@": 689,
  "sti@@": 690,
  "sen@@": 691,
  "pe@@": 692,
  "cht": 693,
  "bringen": 694,
  "few": 695,
  "glaube": 696,
  "30": 697,
  "u": 698,
  "ohne": 699,
  "wei@@": 700,
  "mean": 701,
  "th": 702,
  "einmal": 703,
  "weiter": 704,
  "ans": 705,
  "do@@": 706,
  "eh@@": 707,
  "between": 708,
  "looking": 709,
  "fen": 710,
  "fa@@": 711,
  "Al@@": 712,
  "and@@": 713,
  "sieht": 714,
  "too": 715,
  "tions": 716,
  "weiß": 717,
  "gerade": 718,
  "all@@": 719,
  "dafür": 720,
  "point": 721,
  "ze": 722,
  "ph@@": 723,
  "eln": 724,
  "Tag": 725,
  "sort": 726,
  "tern": 727,
  "leben": 728,
  "c": 729,
  "Ma@@": 730,
  "würden": 731,
  "gesch@@": 732,
  "nie": 733,
  "tic": 734,
  "okay": 735,
  "wer": 736,
  "hin@@": 737,
  "ment": 738,
  "done": 739,
  "ende": 740,
  "ary": 741,
  "try": 742,
  "ever": 743,
  "ne@@": 744,
  "nichts": 745,
  "elle": 746,
  "ho@@": 747,
  "Frage": 748,
  "wi@@": 749,
  "maybe": 750,
  "passiert": 751,
  "real": 752,
  "tion@@": 753,
  "Prozent": 754,
  "man@@": 755,
  "zen": 756,
  "zurück": 757,
  "question": 758,
  "na@@": 759,
  "doesn": 760,
  "ations": 761,
  "data": 762,
  "arbeiten": 763,
  "found": 764,
  "example": 765,
  "children": 766,
  "less": 767,
  "com@@": 768,
  "r": 769,
  "war@@": 770,
  "wa@@": 771,
  "four": 772,
  "whole": 773,
  "love": 774,
  "enden": 775,
  "form": 776,
  "ding": 777,
  "Arbeit": 778,
  "cher": 779,
  "king": 780,
  "isch": 781,
  "live": 782,
  "Millionen": 783,
  "x@@": 784,
  "w": 785,
  "bu@@": 786,
  "daran": 787,
  "sprechen": 788,
  "erste": 789,
  "verstehen": 790,
  "ded": 791,
  "bar": 792,
  "sagt": 793,
  "erte": 794,
  "ors": 795,
  "we@@": 796,
  "tri@@": 797,
  "rei@@": 798,
  "konnte": 799,
  "ihren": 800,
  "light": 801,
  "ens": 802,
  "cken": 803,
  "million": 804,
  "ersten": 805,
  "da@@": 806,
  "wanted": 807,
  "understand": 808,
  "land": 809,
  "using": 810,
  "fi@@": 811,
  "lei@@": 812,
  "fast": 813,
  "New": 814,
  "dr@@": 815,
  "ep@@": 816,
  "stand": 817,
  "et": 818,
  "working": 819,
  "Idee": 820,
  "ie@@": 821,
  "mo@@": 822,
  "Kon@@": 823,
  "gh@@": 824,
  "ons": 825,
  "cht@@": 826,
  "sk@@": 827,
  "call": 828,
  "five": 829,
  "dabei": 830,
  "min@@": 831,
  "bekommen": 832,
  "etwa": 833,
  "letzten": 834,
  "rel@@": 835,
  "100": 836,
  "du@@": 837,
  "2": 838,
  "away": 839,
  "große": 840,
  "ru@@": 841,
  "trying": 842,
  "ges": 843,
  "welche": 844,
  "fl@@": 845,
  "design": 846,
  "ic@@": 847,
  "son": 848,
  "ms": 849,
  "may": 850,
  "OK": 851,
  "red": 852,
  "sollte": 853,
  "ker": 854,
  "chte": 855,
  "always": 856,
  "könnten": 857,
  "no@@": 858,
  "kam": 859,
  "ves": 860,
  "gl@@": 861,
  "school": 862,
  "wer@@": 863,
  "ents": 864,
  "power": 865,
  "kon@@": 866,
  "ziemlich": 867,
  "person": 868,
  "Bi@@": 869,
  "Mar@@": 870,
  "everything": 871,
  "believe": 872,
  "sollten": 873,
  "ell": 874,
  "mar@@": 875,
  "alen": 876,
  "wor@@": 877,
  "Internet": 878,
  "är@@": 879,
  "chten": 880,
  "kids": 881,
  "money": 882,
  "Un@@": 883,
  "pi@@": 884,
  "ung@@": 885,
  "women": 886,
  "Auf@@": 887,
  "ell@@": 888,
  "A": 889,
  "zi@@": 890,
  "mit@@": 891,
  "ganze": 892,
  "feel": 893,
  "he@@": 894,
  "fe@@": 895,
  "wollte": 896,
  "Land": 897,
  "TED": 898,
  "ance": 899,
  "meisten": 900,
  "ben@@": 901,
  "men@@": 902,
  "ran@@": 903,
  "4@@": 904,
  "car@@": 905,
  "Frauen": 906,
  "meinen": 907,
  "erung": 908,
  "so@@": 909,
  "help": 910,
  "country": 911,
  "art": 912,
  "meinem": 913,
  "ters": 914,
  "tt@@": 915,
  "licher": 916,
  "Y@@": 917,
  "second": 918,
  "cks": 919,
  "Dollar": 920,
  "space": 921,
  "ör@@": 922,
  "took": 923,
  "ihrer": 924,
  "comes": 925,
  "Le@@": 926,
  "wichtig": 927,
  "tische": 928,
  "Geld": 929,
  "sc@@": 930,
  "Bild": 931,
  "me@@": 932,
  "play": 933,
  "hal@@": 934,
  "gesehen": 935,
  "number": 936,
  "ci@@": 937,
  "brauchen": 938,
  "ali@@": 939,
  "Weg": 940,
  "darauf": 941,
  "har@@": 942,
  "ev@@": 943,
  "create": 944,
  "des@@": 945,
  "information": 946,
  "hei@@": 947,
  "Di@@": 948,
  "thinking": 949,
  "ßen": 950,
  "jemand": 951,
  "ry": 952,
  "eu@@": 953,
  "ties": 954,
  "elt": 955,
  "5@@": 956,
  "fer@@": 957,
  "kleinen": 958,
  "tung": 959,
  "15": 960,
  "China": 961,
  "food": 962,
  "eigentlich": 963,
  "quite": 964,
  "gs": 965,
  "means": 966,
  "ut@@": 967,
  "lin@@": 968,
  "eri@@": 969,
  "making": 970,
  "det": 971,
  "sense": 972,
  "zusammen": 973,
  "ab": 974,
  "durch@@": 975,
  "energy": 976,
  "left": 977,
  "high": 978,
  "side": 979,
  "3": 980,
  "off@@": 981,
  "Sache": 982,
  "besser": 983,
  "weniger": 984,
  "ill@@": 985,
  "half": 986,
  "nt": 987,
  "Technologie": 988,
  "getting": 989,
  "Mo@@": 990,
  "future": 991,
  "small": 992,
  "become": 993,
  "halten": 994,
  "vier": 995,
  "Mal": 996,
  "ings": 997,
  "En@@": 998,
  "Über@@": 999,
  "enti@@": 1000,
  "Wasser": 1001,
  "str@@": 1002,
  "ob@@": 1003,
  "probably": 1004,
  "enough": 1005,
  "ün@@": 1006,
  "hand": 1007,
  "Daten": 1008,
  "per": 1009,
  "ction": 1010,
  "re": 1011,
  "sion": 1012,
  "best": 1013,
  "room": 1014,
  "fe": 1015,
  "sel@@": 1016,
  "building": 1017,
  "1@@": 1018,
  "bes@@": 1019,
  "5": 1020,
  "ct": 1021,
  "bedeutet": 1022,
  "says": 1023,
  "dachte": 1024,
  "mon@@": 1025,
  "zusammen@@": 1026,
  "times": 1027,
  "Ende": 1028,
  "kleine": 1029,
  "Seite": 1030,
  "mu@@": 1031,
  "Zu@@": 1032,
  "ast@@": 1033,
  "Oh": 1034,
  "ihm": 1035,
  "interesting": 1036,
  "ia": 1037,
  "win@@": 1038,
  "Africa": 1039,
  "body": 1040,
  "ber": 1041,
  "pa@@": 1042,
  "without": 1043,
  "zeigt": 1044,
  "ates": 1045,
  "ver": 1046,
  "&#91;": 1047,
  "ll@@": 1048,
  "stuff": 1049,
  "&#93;": 1050,
  "tischen": 1051,
  "unseren": 1052,
  "mer@@": 1053,
  "home": 1054,
  "Ihre": 1055,
  "äu@@": 1056,
  "ist@@": 1057,
  "happened": 1058,
  "coming": 1059,
  "ways": 1060,
  "danke": 1061,
  "dar@@": 1062,
  "2@@": 1063,
  "ely": 1064,
  "talking": 1065,
  "fol@@": 1066,
  "sub@@": 1067,
  "geb@@": 1068,
  "ask": 1069,
  "weise": 1070,
  "Gehirn": 1071,
  "ser@@": 1072,
  "Pro@@": 1073,
  "schauen": 1074,
  "ß@@": 1075,
  "gegen": 1076,
  "ts@@": 1077,
  "ha@@": 1078,
  "ses": 1079,
  "social": 1080,
  "dollars": 1081,
  "je@@": 1082,
  "mer": 1083,
  "lan@@": 1084,
  "großen": 1085,
  "1": 1086,
  "tig": 1087,
  "Menge": 1088,
  "versuchen": 1089,
  "heit": 1090,
  "8": 1091,
  "jedes": 1092,
  "ability": 1093,
  "pri@@": 1094,
  "anything": 1095,
  "pretty": 1096,
  "care": 1097,
  "set": 1098,
  "build": 1099,
  "ganzen": 1100,
  "lernen": 1101,
  "trans@@": 1102,
  "19@@": 1103,
  "ones": 1104,
  "the@@": 1105,
  "ut": 1106,
  "führen": 1107,
  "science": 1108,
  "allen": 1109,
  "jeden": 1110,
  "ari@@": 1111,
  "Weise": 1112,
  "pres@@": 1113,
  "ble": 1114,
  "goes": 1115,
  "simple": 1116,
  "4": 1117,
  "bei@@": 1118,
  "Dank": 1119,
  "makes": 1120,
  "seit": 1121,
  "indem": 1122,
  "mind": 1123,
  "bar@@": 1124,
  "ori@@": 1125,
  "case": 1126,
  "beim": 1127,
  "seen": 1128,
  "move": 1129,
  "Li@@": 1130,
  "bt": 1131,
  "lives": 1132,
  "days": 1133,
  "gesagt": 1134,
  "York": 1135,
  "gu@@": 1136,
  "cre@@": 1137,
  "while": 1138,
  "ga@@": 1139,
  "app@@": 1140,
  "basically": 1141,
  "tete": 1142,
  "Raum": 1143,
  "Zukunft": 1144,
  "happen": 1145,
  "schaffen": 1146,
  "across": 1147,
  "living": 1148,
  "told": 1149,
  "Um@@": 1150,
  "Mann": 1151,
  "Frau": 1152,
  "mp@@": 1153,
  "low": 1154,
  "keinen": 1155,
  "0@@": 1156,
  "bri@@": 1157,
  "ches": 1158,
  "ved": 1159,
  "ness": 1160,
  "liches": 1161,
  "bauen": 1162,
  "lang": 1163,
  "glauben": 1164,
  "once": 1165,
  "such": 1166,
  "moment": 1167,
  "else": 1168,
  "saw": 1169,
  "erst": 1170,
  "7@@": 1171,
  "est@@": 1172,
  "wahrscheinlich": 1173,
  "imagine": 1174,
  "6": 1175,
  "ek@@": 1176,
  "gend": 1177,
  "ner": 1178,
  "hard": 1179,
  "hl@@": 1180,
  "ity": 1181,
  "tigen": 1182,
  "gef@@": 1183,
  "40": 1184,
  "tro@@": 1185,
  "8@@": 1186,
  "Se@@": 1187,
  "picture": 1188,
  "tre@@": 1189,
  "später": 1190,
  "happens": 1191,
  "countries": 1192,
  "bad": 1193,
  "hin": 1194,
  "eigenen": 1195,
  "yet": 1196,
  "stellt": 1197,
  "Au@@": 1198,
  "car": 1199,
  "Ger@@": 1200,
  "ach@@": 1201,
  "tisch": 1202,
  "fin@@": 1203,
  "seiner": 1204,
  "ws": 1205,
  "fra@@": 1206,
  "Grund": 1207,
  "tieren": 1208,
  "id": 1209,
  "sta@@": 1210,
  "hören": 1211,
  "zurück@@": 1212,
  "ase": 1213,
  "bel@@": 1214,
  "os": 1215,
  "top": 1216,
  "los": 1217,
  "book": 1218,
  "Person": 1219,
  "ec@@": 1220,
  "having": 1221,
  "wo@@": 1222,
  "tige": 1223,
  "hätte": 1224,
  "computer": 1225,
  "ien": 1226,
  "six": 1227,
  "stehen": 1228,
  "city": 1229,
  "ass@@": 1230,
  "cor@@": 1231,
  "besch@@": 1232,
  "heraus": 1233,
  "jede": 1234,
  "later": 1235,
  "und@@": 1236,
  "go@@": 1237,
  "nein": 1238,
  "learn": 1239,
  "gute": 1240,
  "Erde": 1241,
  "6@@": 1242,
  "ungefähr": 1243,
  "ma": 1244,
  "experience": 1245,
  "problems": 1246,
  "line": 1247,
  "asked": 1248,
  "erten": 1249,
  "Ri@@": 1250,
  "Bu@@": 1251,
  "Kind": 1252,
  "gel": 1253,
  "self": 1254,
  "Ort": 1255,
  "family": 1256,
  "alt": 1257,
  "sah": 1258,
  "7": 1259,
  "inn@@": 1260,
  "fünf": 1261,
  "lange": 1262,
  "funktioniert": 1263,
  "nach@@": 1264,
  "comp@@": 1265,
  "ok@@": 1266,
  "ideas": 1267,
  "global": 1268,
  "pro": 1269,
  "Gr@@": 1270,
  "pos@@": 1271,
  "tation": 1272,
  "ure": 1273,
  "mm@@": 1274,
  "af@@": 1275,
  "Earth": 1276,
  "ess@@": 1277,
  "fall": 1278,
  "health": 1279,
  "wenig": 1280,
  "essen": 1281,
  "DNA": 1282,
  "sicher": 1283,
  "single": 1284,
  "far": 1285,
  "cted": 1286,
  "Su@@": 1287,
  "Probleme": 1288,
  "inside": 1289,
  "open": 1290,
  "hen": 1291,
  "under@@": 1292,
  "richtig": 1293,
  "9@@": 1294,
  "tor": 1295,
  "iert": 1296,
  "kte": 1297,
  "reason": 1298,
  "Lebens@@": 1299,
  "almost": 1300,
  "business": 1301,
  "everybody": 1302,
  "both": 1303,
  "heißt": 1304,
  "process": 1305,
  "konnten": 1306,
  "tim@@": 1307,
  "erzählen": 1308,
  "blo@@": 1309,
  "Unter@@": 1310,
  "20@@": 1311,
  "versch@@": 1312,
  "les": 1313,
  "project": 1314,
  "young": 1315,
  "ris@@": 1316,
  "Her@@": 1317,
  "oft": 1318,
  "bur@@": 1319,
  "onen": 1320,
  "billion": 1321,
  "fer": 1322,
  "planet": 1323,
  "our@@": 1324,
  "schnell": 1325,
  "nothing": 1326,
  "ys": 1327,
  "9": 1328,
  "ving": 1329,
  "face": 1330,
  "nutzen": 1331,
  "schen": 1332,
  "ast": 1333,
  "lu@@": 1334,
  "System": 1335,
  "sur@@": 1336,
  "neuen": 1337,
  "aten": 1338,
  "saying": 1339,
  "looks": 1340,
  "within": 1341,
  "Ha@@": 1342,
  "ler": 1343,
  "ster": 1344,
  "The": 1345,
  "&amp;": 1346,
  "sure": 1347,
  "Inter@@": 1348,
  "liegt": 1349,
  "spielen": 1350,
  "sol@@": 1351,
  "star@@": 1352,
  "braucht": 1353,
  "Moment": 1354,
  "ationen": 1355,
  "nature": 1356,
  "möglich": 1357,
  "wrong": 1358,
  "tionen": 1359,
  "helfen": 1360,
  "ns": 1361,
  "eins": 1362,
  "cells": 1363,
  "alten": 1364,
  "history": 1365,
  "sage": 1366,
  "Mutter": 1367,
  "gung": 1368,
  "guy": 1369,
  "Par@@": 1370,
  "remember": 1371,
  "ue": 1372,
  "mor@@": 1373,
  "child": 1374,
  "ator": 1375,
  "bro@@": 1376,
  "whether": 1377,
  "Bo@@": 1378,
  "weit": 1379,
  "under": 1380,
  "nächsten": 1381,
  "Ich": 1382,
  "genug": 1383,
  "ies": 1384,
  "chi@@": 1385,
  "bring": 1386,
  "already": 1387,
  "S": 1388,
  "Fall": 1389,
  "ence": 1390,
  "ah@@": 1391,
  "begann": 1392,
  "Ideen": 1393,
  "music": 1394,
  "Ber@@": 1395,
  "einander": 1396,
  "test": 1397,
  "true": 1398,
  "possible": 1399,
  "Ex@@": 1400,
  "ieren": 1401,
  "anders": 1402,
  "unserem": 1403,
  "eg@@": 1404,
  "tal@@": 1405,
  "il": 1406,
  "els": 1407,
  "kan@@": 1408,
  "oll@@": 1409,
  "%": 1410,
  "Ch@@": 1411,
  "keep": 1412,
  "ative": 1413,
  "dig@@": 1414,
  "bisschen": 1415,
  "order": 1416,
  "read": 1417,
  "äl@@": 1418,
  "Bes@@": 1419,
  "ste@@": 1420,
  "mat@@": 1421,
  "Computer": 1422,
  "tan@@": 1423,
  "hr@@": 1424,
  "seinen": 1425,
  "cancer": 1426,
  "0s": 1427,
  "piece": 1428,
  "looked": 1429,
  "pp@@": 1430,
  "ose": 1431,
  "answer": 1432,
  "Afrika": 1433,
  "matter": 1434,
  "än@@": 1435,
  "darum": 1436,
  "heard": 1437,
  "ps": 1438,
  "gehört": 1439,
  "ziehen": 1440,
  "view": 1441,
  "beautiful": 1442,
  "video": 1443,
  "überall": 1444,
  "12": 1445,
  "built": 1446,
  "entwickelt": 1447,
  "ckt": 1448,
  "D": 1449,
  "ft@@": 1450,
  "over@@": 1451,
  "zwei@@": 1452,
  "hope": 1453,
  "gets": 1454,
  "fragen": 1455,
  "geh@@": 1456,
  "manchmal": 1457,
  "often": 1458,
  "Körper": 1459,
  "tiert": 1460,
  "col@@": 1461,
  "reden": 1462,
  "teilen": 1463,
  "Planeten": 1464,
  "Mon@@": 1465,
  "Mit@@": 1466,
  "zei@@": 1467,
  "amazing": 1468,
  "fo@@": 1469,
  "sei": 1470,
  "oben": 1471,
  "ven": 1472,
  "lichkeit": 1473,
  "India": 1474,
  "months": 1475,
  "kennen": 1476,
  "bevor": 1477,
  "Milliarden": 1478,
  "je": 1479,
  "ß": 1480,
  "ton": 1481,
  "nte": 1482,
  "works": 1483,
  "sor@@": 1484,
  "anzu@@": 1485,
  "flo@@": 1486,
  "Stadt": 1487,
  "gestellt": 1488,
  "Nach@@": 1489,
  "dy": 1490,
  "ner@@": 1491,
  "ces": 1492,
  "led": 1493,
  "Leuten": 1494,
  "ster@@": 1495,
  "25": 1496,
  "ism": 1497,
  "dung": 1498,
  "community": 1499,
  "fu@@": 1500,
  "nennen": 1501,
  "Energie": 1502,
  "wunder@@": 1503,
  "instead": 1504,
  "head": 1505,
  "weiter@@": 1506,
  "universe": 1507,
  "someone": 1508,
  "isn": 1509,
  "taking": 1510,
  "group": 1511,
  "poli@@": 1512,
  "Schule": 1513,
  "since": 1514,
  "stories": 1515,
  "fand": 1516,
  "until": 1517,
  "rop@@": 1518,
  "sagten": 1519,
  "ban@@": 1520,
  "species": 1521,
  "places": 1522,
  "B": 1523,
  "nten": 1524,
  "myself": 1525,
  "ments": 1526,
  "couple": 1527,
  "Arten": 1528,
  "ture": 1529,
  "rec@@": 1530,
  "sometimes": 1531,
  "gleich": 1532,
  "seinem": 1533,
  "C": 1534,
  "stra@@": 1535,
  "199@@": 1536,
  "education": 1537,
  "Projekt": 1538,
  "rie@@": 1539,
  "ff": 1540,
  "ene": 1541,
  "Qu@@": 1542,
  "turn": 1543,
  "ren@@": 1544,
  "äch@@": 1545,
  "anderes": 1546,
  "words": 1547,
  "ourselves": 1548,
  "ischer": 1549,
  "language": 1550,
  "machte": 1551,
  "Gen@@": 1552,
  "tur@@": 1553,
  "ur": 1554,
  "plan@@": 1555,
  "mm": 1556,
  "/": 1557,
  "ot": 1558,
  "besonders": 1559,
  "United": 1560,
  "deshalb": 1561,
  "gan@@": 1562,
  "control": 1563,
  "lau@@": 1564,
  "cl@@": 1565,
  "cy": 1566,
  "Natur": 1567,
  "og@@": 1568,
  "USA": 1569,
  "steht": 1570,
  "wh@@": 1571,
  "government": 1572,
  "dern": 1573,
  "ihrem": 1574,
  "level": 1575,
  "fahren": 1576,
  "hand@@": 1577,
  "wn": 1578,
  "turns": 1579,
  "kinds": 1580,
  "80": 1581,
  "Punkt": 1582,
  "decided": 1583,
  "che@@": 1584,
  "public": 1585,
  "exactly": 1586,
  "bre@@": 1587,
  "Form": 1588,
  "Ph@@": 1589,
  "Informationen": 1590,
  "Ne@@": 1591,
  "Hand@@": 1592,
  "Mädchen": 1593,
  "schi@@": 1594,
  "net": 1595,
  "Minuten": 1596,
  "though": 1597,
  "Te@@": 1598,
  "somebody": 1599,
  "verändern": 1600,
  "research": 1601,
  "God": 1602,
  "erkennen": 1603,
  "euch": 1604,
  "ics": 1605,
  "setzen": 1606,
  "enen": 1607,
  "takes": 1608,
  "ay": 1609,
  "ür@@": 1610,
  "heraus@@": 1611,
  "Licht": 1612,
  "ier@@": 1613,
  "isi@@": 1614,
  "ard": 1615,
  "ang": 1616,
  "systems": 1617,
  "ße": 1618,
  "arti@@": 1619,
  "completely": 1620,
  "front": 1621,
  "chen@@": 1622,
  "ear@@": 1623,
  "Sk@@": 1624,
  "oren": 1625,
  "klar": 1626,
  "tik": 1627,
  "game": 1628,
  "verschiedene": 1629,
  "Antwort": 1630,
  "bereits": 1631,
  "large": 1632,
  "Ges@@": 1633,
  "wasn": 1634,
  "rate": 1635,
  "heart": 1636,
  "ven@@": 1637,
  "rather": 1638,
  "äh@@": 1639,
  "stri@@": 1640,
  "house": 1641,
  "word": 1642,
  "musste": 1643,
  "up@@": 1644,
  "ets": 1645,
  "job": 1646,
  "minutes": 1647,
  "gener@@": 1648,
  "ange@@": 1649,
  "gte": 1650,
  "mus@@": 1651,
  "itself": 1652,
  "namens": 1653,
  "yes": 1654,
  "nahmen": 1655,
  "run": 1656,
  "60": 1657,
  "everyone": 1658,
  "animals": 1659,
  "happy": 1660,
  "benutzen": 1661,
  "Fragen": 1662,
  "model": 1663,
  "tz@@": 1664,
  "hätten": 1665,
  "stop": 1666,
  "uni@@": 1667,
  "night": 1668,
  "darin": 1669,
  "dri@@": 1670,
  "ying": 1671,
  "Gruppe": 1672,
  "students": 1673,
  "became": 1674,
  "ome": 1675,
  "gar": 1676,
  "lie@@": 1677,
  "gerne": 1678,
  "zed": 1679,
  "schaft": 1680,
  "irgend@@": 1681,
  "cu@@": 1682,
  "Indien": 1683,
  "must": 1684,
  "happening": 1685,
  "woman": 1686,
  "fre@@": 1687,
  "share": 1688,
  "üh@@": 1689,
  "erreichen": 1690,
  "lich@@": 1691,
  "wegen": 1692,
  "end@@": 1693,
  "ined": 1694,
  "state": 1695,
  "ess": 1696,
  "Wei@@": 1697,
  "cr@@": 1698,
  "legen": 1699,
  "Buch": 1700,
  "Geschichten": 1701,
  "themselves": 1702,
  "HIV": 1703,
  "tru@@": 1704,
  "bra@@": 1705,
  "amp@@": 1706,
  "Familie": 1707,
  "oil": 1708,
  "Design": 1709,
  "out@@": 1710,
  "lt": 1711,
  "tragen": 1712,
  "States": 1713,
  "Con@@": 1714,
  "America": 1715,
  "learned": 1716,
  "ment@@": 1717,
  "teil@@": 1718,
  "third": 1719,
  "mother": 1720,
  "las@@": 1721,
  "fil@@": 1722,
  "Lebens": 1723,
  "Wissenschaft": 1724,
  "ad": 1725,
  "Ihr": 1726,
  "nu@@": 1727,
  "huge": 1728,
  "Musik": 1729,
  "Kopf": 1730,
  "created": 1731,
  "hear": 1732,
  "sechs": 1733,
  "name": 1734,
  "Lin@@": 1735,
  "Bilder": 1736,
  "200": 1737,
  "por@@": 1738,
  "study": 1739,
  "company": 1740,
  "kom@@": 1741,
  "hours": 1742,
  "dra@@": 1743,
  "century": 1744,
  "bor@@": 1745,
  "friends": 1746,
  "innerhalb": 1747,
  "guys": 1748,
  "einigen": 1749,
  "ili@@": 1750,
  "pu@@": 1751,
  "recht": 1752,
  "mt": 1753,
  "Bl@@": 1754,
  "disease": 1755,
  "environment": 1756,
  "ling": 1757,
  "perhaps": 1758,
  "met@@": 1759,
  "irgendwie": 1760,
  "psych@@": 1761,
  "Po@@": 1762,
  "Rei@@": 1763,
  "enz": 1764,
  "Augen": 1765,
  "Ro@@": 1766,
  "zer@@": 1767,
  "news": 1768,
  "lots": 1769,
  "worked": 1770,
  "Kom@@": 1771,
  "dan@@": 1772,
  "figure": 1773,
  "won": 1774,
  "aren": 1775,
  "Ur@@": 1776,
  "early": 1777,
  "ked": 1778,
  "along": 1779,
  "jedem": 1780,
  "beh@@": 1781,
  "American": 1782,
  "gern": 1783,
  "Sti@@": 1784,
  "De@@": 1785,
  "ales": 1786,
  "ust": 1787,
  "falls": 1788,
  "natural": 1789,
  "bringt": 1790,
  "ack": 1791,
  "gleichen": 1792,
  "viel@@": 1793,
  "sound": 1794,
  "gew@@": 1795,
  "ey": 1796,
  "cap@@": 1797,
  "Hand": 1798,
  "soll": 1799,
  "shows": 1800,
  "couldn": 1801,
  "tut": 1802,
  "knew": 1803,
  "ord@@": 1804,
  "turned": 1805,
  "entwickeln": 1806,
  "ful": 1807,
  "niemand": 1808,
  "particular": 1809,
  "questions": 1810,
  "society": 1811,
  "Gott": 1812,
  "dich": 1813,
  "fish": 1814,
  "can@@": 1815,
  "ausge@@": 1816,
  "sed": 1817,
  "market": 1818,
  "moving": 1819,
  "seven": 1820,
  "T": 1821,
  "based": 1822,
  "ati@@": 1823,
  "ack@@": 1824,
  "wes@@": 1825,
  "bewegen": 1826,
  "Nor@@": 1827,
  "rat@@": 1828,
  "schließlich": 1829,
  "ore": 1830,
  "Gefühl": 1831,
  "Möglichkeit": 1832,
  "wal@@": 1833,
  "nisse": 1834,
  "Google": 1835,
  "wing": 1836,
  "län@@": 1837,
  "bil@@": 1838,
  "dessen": 1839,
  "weg": 1840,
  "verschiedenen": 1841,
  "Sachen": 1842,
  "Sprache": 1843,
  "Stunden": 1844,
  "wachsen": 1845,
  "learning": 1846,
  "kre@@": 1847,
  ".000": 1848,
  "treffen": 1849,
  "ea@@": 1850,
  "Bet@@": 1851,
  "past": 1852,
  "führt": 1853,
  "Medi@@": 1854,
  "least": 1855,
  "obwohl": 1856,
  "against": 1857,
  "Or@@": 1858,
  "act": 1859,
  "einzige": 1860,
  "len": 1861,
  "gten": 1862,
  "others": 1863,
  "Welt@@": 1864,
  "air": 1865,
  "vorstellen": 1866,
  "Gesellschaft": 1867,
  "Me@@": 1868,
  "cell": 1869,
  "during": 1870,
  "kten": 1871,
  "lässt": 1872,
  "cal": 1873,
  "ish": 1874,
  "ort": 1875,
  "ka": 1876,
  "verwenden": 1877,
  "ente": 1878,
  "erhalten": 1879,
  "zing": 1880,
  "area": 1881,
  "menschlichen": 1882,
  "imp@@": 1883,
  "oh@@": 1884,
  "gave": 1885,
  "nimmt": 1886,
  "finally": 1887,
  "ken@@": 1888,
  "Unternehmen": 1889,
  "500": 1890,
  "So@@": 1891,
  "Str@@": 1892,
  "ändern": 1893,
  "bas@@": 1894,
  "son@@": 1895,
  "yeah": 1896,
  "ften": 1897,
  "beiden": 1898,
  "ory": 1899,
  "ots": 1900,
  "Vater": 1901,
  "close": 1902,
  "fühlen": 1903,
  "oc@@": 1904,
  "For@@": 1905,
  "ists": 1906,
  "full": 1907,
  "E": 1908,
  "wollten": 1909,
  "machine": 1910,
  "hab@@": 1911,
  "pen@@": 1912,
  "wonderful": 1913,
  "neu@@": 1914,
  "ko@@": 1915,
  "dro@@": 1916,
  "Grund@@": 1917,
  "los@@": 1918,
  "gemein@@": 1919,
  "taken": 1920,
  "auszu@@": 1921,
  "free": 1922,
  "beginnen": 1923,
  "Kindern": 1924,
  "ining": 1925,
  "thousands": 1926,
  "outside": 1927,
  "11": 1928,
  "wis@@": 1929,
  "Patienten": 1930,
  "Zei@@": 1931,
  "gkeit": 1932,
  "Ru@@": 1933,
  "culture": 1934,
  "emp@@": 1935,
  "sho@@": 1936,
  "schl@@": 1937,
  "Regierung": 1938,
  "tsch@@": 1939,
  "tional": 1940,
  "cur@@": 1941,
  "damals": 1942,
  "zt": 1943,
  "18": 1944,
  "besten": 1945,
  "nämlich": 1946,
  "daher": 1947,
  "schwer": 1948,
  "key": 1949,
  "ars": 1950,
  "cost": 1951,
  "difference": 1952,
  "scale": 1953,
  "stru@@": 1954,
  "unglaublich": 1955,
  "genommen": 1956,
  "Gebäude": 1957,
  "inst@@": 1958,
  "David": 1959,
  "ass": 1960,
  "Kor@@": 1961,
  "rä@@": 1962,
  "herum": 1963,
  "needs": 1964,
  "Man@@": 1965,
  "ocean": 1966,
  "hö@@": 1967,
  "middle": 1968,
  "O": 1969,
  "gebracht": 1970,
  "Na@@": 1971,
  "eight": 1972,
  "om": 1973,
  "fahr@@": 1974,
  "od@@": 1975,
  "wä@@": 1976,
  "entire": 1977,
  "hoch": 1978,
  "pr@@": 1979,
  "getan": 1980,
  "sing": 1981,
  "phone": 1982,
  "ged": 1983,
  "18@@": 1984,
  "Lei@@": 1985,
  "eng@@": 1986,
  "Sy@@": 1987,
  "wir@@": 1988,
  "eil@@": 1989,
  "cli@@": 1990,
  "wieder@@": 1991,
  "Schul@@": 1992,
  "überhaupt": 1993,
  "population": 1994,
  "ther": 1995,
  "zeit": 1996,
  "father": 1997,
  "ched": 1998,
  "tor@@": 1999,
  "sche": 2000,
  "ning": 2001,
  "stellung": 2002,
  "seeing": 2003,
  "Universum": 2004,
  "verk@@": 2005,
  "deren": 2006,
  "whatever": 2007,
  "Neu@@": 2008,
  "fte": 2009,
  "Gra@@": 2010,
  "tically": 2011,
  "gang": 2012,
  "parts": 2013,
  "Lage": 2014,
  "ler@@": 2015,
  "pan@@": 2016,
  "ders": 2017,
  "verändert": 2018,
  "aller": 2019,
  "online": 2020,
  "tiven": 2021,
  "versucht": 2022,
  "size": 2023,
  "schreiben": 2024,
  "llen": 2025,
  "tics": 2026,
  "Kunst": 2027,
  "behind": 2028,
  "powerful": 2029,
  "terms": 2030,
  "del@@": 2031,
  "fes@@": 2032,
  "image": 2033,
  "Macht": 2034,
  "schön": 2035,
  "ren": 2036,
  "met": 2037,
  "ang@@": 2038,
  "La@@": 2039,
  "interested": 2040,
  "Hause": 2041,
  "fü@@": 2042,
  "changed": 2043,
  "tik@@": 2044,
  "kt@@": 2045,
  "lung": 2046,
  "beginning": 2047,
  "Haus": 2048,
  "Bar@@": 2049,
  "cing": 2050,
  "grow": 2051,
  "Sta@@": 2052,
  "leave": 2053,
  "hinter": 2054,
  "Bro@@": 2055,
  "aff@@": 2056,
  "air@@": 2057,
  "syn@@": 2058,
  "Männer": 2059,
  "yourself": 2060,
  "Well": 2061,
  "ach": 2062,
  "zwar": 2063,
  "certain": 2064,
  "gar@@": 2065,
  "given": 2066,
  "Stück": 2067,
  "audience": 2068,
  "walk": 2069,
  "Co@@": 2070,
  "Ste@@": 2071,
  "wohl": 2072,
  "ground": 2073,
  "parents": 2074,
  "bitte": 2075,
  "Glück": 2076,
  "ong": 2077,
  "cool": 2078,
  "iger": 2079,
  "ill": 2080,
  "easy": 2081,
  "cra@@": 2082,
  "voll": 2083,
  "Eltern": 2084,
  "fan@@": 2085,
  "nächste": 2086,
  "kurz": 2087,
  "Ju@@": 2088,
  "lösen": 2089,
  "eyes": 2090,
  "teten": 2091,
  "lose": 2092,
  "kamen": 2093,
  "ingen": 2094,
  "cally": 2095,
  "weg@@": 2096,
  "unden": 2097,
  "eher": 2098,
  "pf@@": 2099,
  "Auto": 2100,
  "ed@@": 2101,
  "lesen": 2102,
  "rest": 2103,
  "sel": 2104,
  "unten": 2105,
  "baren": 2106,
  "Film": 2107,
  "fly": 2108,
  "Angst": 2109,
  "ik@@": 2110,
  "gende": 2111,
  "amount": 2112,
  "Car@@": 2113,
  "groß": 2114,
  "Länder": 2115,
  "difficult": 2116,
  "enten": 2117,
  "spend": 2118,
  "ta": 2119,
  "Spiel": 2120,
  "ane": 2121,
  "cting": 2122,
  "dir": 2123,
  "normal": 2124,
  "nachdem": 2125,
  "letzte": 2126,
  "verst@@": 2127,
  "ins@@": 2128,
  "hol@@": 2129,
  "Fahr@@": 2130,
  "dly": 2131,
  "cannot": 2132,
  "fac@@": 2133,
  "ical": 2134,
  "black": 2135,
  "ced": 2136,
  "gem@@": 2137,
  "stre@@": 2138,
  "menschliche": 2139,
  "felt": 2140,
  "ice": 2141,
  "hands": 2142,
  "enz@@": 2143,
  "gleiche": 2144,
  "na": 2145,
  "bs": 2146,
  "allem": 2147,
  "hu@@": 2148,
  "spezi@@": 2149,
  "began": 2150,
  "pul@@": 2151,
  "tiv@@": 2152,
  "trau@@": 2153,
  "Dingen": 2154,
  ",@@": 2155,
  "best@@": 2156,
  "World": 2157,
  "Th@@": 2158,
  "economic": 2159,
  "weitere": 2160,
  "common": 2161,
  "vis@@": 2162,
  "belie@@": 2163,
  "sive": 2164,
  "buy": 2165,
  "paper": 2166,
  "tat": 2167,
  "aufge@@": 2168,
  "team": 2169,
  "death": 2170,
  "known": 2171,
  "longer": 2172,
  "rü@@": 2173,
  "suchen": 2174,
  "M": 2175,
  "gone": 2176,
  "dete": 2177,
  "books": 2178,
  "mögen": 2179,
  "Ä@@": 2180,
  "cking": 2181,
  "tic@@": 2182,
  "bes": 2183,
  "wat@@": 2184,
  "wel@@": 2185,
  "tä@@": 2186,
  "ern@@": 2187,
  "ok": 2188,
  "worden": 2189,
  "yp@@": 2190,
  "Gol@@": 2191,
  "ame": 2192,
  "od": 2193,
  "local": 2194,
  "friend": 2195,
  "far@@": 2196,
  "nahm": 2197,
  "genden": 2198,
  "value": 2199,
  "ju@@": 2200,
  "ously": 2201,
  "kaufen": 2202,
  "ned": 2203,
  "Ta@@": 2204,
  "nahme": 2205,
  "Entwicklung": 2206,
  "fanden": 2207,
  "material": 2208,
  "needed": 2209,
  "stellte": 2210,
  "force": 2211,
  "welches": 2212,
  "simply": 2213,
  "jedoch": 2214,
  "findet": 2215,
  "heiten": 2216,
  "dig": 2217,
  "born": 2218,
  "bare": 2219,
  "schau@@": 2220,
  "sy@@": 2221,
  "media": 2222,
  "ship": 2223,
  "sto@@": 2224,
  "treten": 2225,
  "ra": 2226,
  "ball": 2227,
  "0.000": 2228,
  "tried": 2229,
  "deal": 2230,
  "ki@@": 2231,
  "liegen": 2232,
  "step": 2233,
  "v": 2234,
  "Roboter": 2235,
  "zes": 2236,
  "Col@@": 2237,
  "sig@@": 2238,
  "gs@@": 2239,
  "Hilfe": 2240,
  "betrachten": 2241,
  "cri@@": 2242,
  "hel@@": 2243,
  "Lo@@": 2244,
  "G": 2245,
  "forward": 2246,
  "ther@@": 2247,
  "eth@@": 2248,
  "eigene": 2249,
  "hor@@": 2250,
  "Win@@": 2251,
  "reg@@": 2252,
  "Gegen@@": 2253,
  "ser": 2254,
  "Wort": 2255,
  "field": 2256,
  "isches": 2257,
  "gebaut": 2258,
  "mechan@@": 2259,
  "Min@@": 2260,
  "Fl@@": 2261,
  "cities": 2262,
  "voll@@": 2263,
  "gri@@": 2264,
  "ats": 2265,
  "humans": 2266,
  "Tiere": 2267,
  "green": 2268,
  "Anfang": 2269,
  "ement": 2270,
  "week": 2271,
  "ik": 2272,
  "meines": 2273,
  "Tr@@": 2274,
  "sterben": 2275,
  "Erfahrung": 2276,
  "To@@": 2277,
  "realized": 2278,
  "ology": 2279,
  "interessant": 2280,
  "genauso": 2281,
  "solche": 2282,
  "P": 2283,
  "Kur@@": 2284,
  "Staaten": 2285,
  "ier": 2286,
  "tiv": 2287,
  "ater": 2288,
  "neu": 2289,
  "bel": 2290,
  "growth": 2291,
  "quickly": 2292,
  "erinnern": 2293,
  "Kultur": 2294,
  "complex": 2295,
  "langen": 2296,
  "mussten": 2297,
  "either": 2298,
  "Tra@@": 2299,
  "feet": 2300,
  "ality": 2301,
  "wand@@": 2302,
  "Pri@@": 2303,
  "bleiben": 2304,
  "short": 2305,
  "tel": 2306,
  "clear": 2307,
  "grün@@": 2308,
  "watch": 2309,
  "lieben": 2310,
  "wür@@": 2311,
  "cul@@": 2312,
  "Sinn": 2313,
  "Sa@@": 2314,
  "ef@@": 2315,
  "Lösung": 2316,
  "ehr@@": 2317,
  "falsch": 2318,
  "kur@@": 2319,
  "Per@@": 2320,
  "spent": 2321,
  "land@@": 2322,
  "film": 2323,
  "frei@@": 2324,
  "gro@@": 2325,
  "mag": 2326,
  "person@@": 2327,
  "surface": 2328,
  "Lehrer": 2329,
  "direkt": 2330,
  "wahr@@": 2331,
  "nis": 2332,
  "ole": 2333,
  "ct@@": 2334,
  "ager": 2335,
  "sollen": 2336,
  "companies": 2337,
  "ismus": 2338,
  "asi@@": 2339,
  "cts": 2340,
  "laufen": 2341,
  "Grunde": 2342,
  "behavior": 2343,
  "Tage": 2344,
  "tin@@": 2345,
  "Unterschied": 2346,
  "danach": 2347,
  "000": 2348,
  "John": 2349,
  "Bau@@": 2350,
  "Kat@@": 2351,
  "Möglichkeiten": 2352,
  "wahr": 2353,
  "char@@": 2354,
  "inten@@": 2355,
  "super@@": 2356,
  "incredible": 2357,
  "ese": 2358,
  "Publikum": 2359,
  "tions@@": 2360,
  "sitting": 2361,
  "70": 2362,
  "pay": 2363,
  "Har@@": 2364,
  "fragte": 2365,
  "K": 2366,
  "ums": 2367,
  "lic@@": 2368,
  "stage": 2369,
  "anti@@": 2370,
  "selben": 2371,
  "Res@@": 2372,
  "structure": 2373,
  "ium": 2374,
  "ktion": 2375,
  "lost": 2376,
  "fest@@": 2377,
  "eter": 2378,
  "You": 2379,
  "growing": 2380,
  "eat": 2381,
  "wären": 2382,
  "medi@@": 2383,
  "Essen": 2384,
  "fri@@": 2385,
  "chn@@": 2386,
  "ros@@": 2387,
  "pas@@": 2388,
  "kel": 2389,
  "eller": 2390,
  "fel@@": 2391,
  "ire": 2392,
  "versi@@": 2393,
  "U.@@": 2394,
  "gegeben": 2395,
  "hier@@": 2396,
  "Com@@": 2397,
  "größte": 2398,
  "ands": 2399,
  "Ku@@": 2400,
  "Freunde": 2401,
  "wouldn": 2402,
  "produ@@": 2403,
  "knowledge": 2404,
  "Sen@@": 2405,
  "reality": 2406,
  "90": 2407,
  "Lu@@": 2408,
  "Hei@@": 2409,
  "Zellen": 2410,
  "bottom": 2411,
  "Kar@@": 2412,
  "economy": 2413,
  "sch": 2414,
  "Woche": 2415,
  "Spiel@@": 2416,
  "animal": 2417,
  "Kü@@": 2418,
  "gefunden": 2419,
  "ump@@": 2420,
  "chter": 2421,
  "plötzlich": 2422,
  "write": 2423,
  "nen@@": 2424,
  "Gre@@": 2425,
  "tis@@": 2426,
  "girl": 2427,
  "cut": 2428,
  "198@@": 2429,
  "dlich": 2430,
  "fun": 2431,
  "ziert": 2432,
  "No@@": 2433,
  "TED@@": 2434,
  "ley": 2435,
  "exc@@": 2436,
  "starting": 2437,
  "Ziel": 2438,
  "besteht": 2439,
  "tat@@": 2440,
  "tical": 2441,
  "flu@@": 2442,
  "miles": 2443,
  "mem@@": 2444,
  "üt@@": 2445,
  "Gesch@@": 2446,
  "Wirtschaft": 2447,
  "vel@@": 2448,
  "nor@@": 2449,
  "Thema": 2450,
  "tau@@": 2451,
  "Bewegung": 2452,
  "Kan@@": 2453,
  "ca@@": 2454,
  "ash@@": 2455,
  "sieben": 2456,
  "ams": 2457,
  "political": 2458,
  "zuerst": 2459,
  "mittel": 2460,
  "positive": 2461,
  "gene@@": 2462,
  "weeks": 2463,
  "Krebs": 2464,
  "log@@": 2465,
  "Monate": 2466,
  "isten": 2467,
  "cen@@": 2468,
  "Bri@@": 2469,
  "ett@@": 2470,
  "telling": 2471,
  "developed": 2472,
  "16": 2473,
  "hold": 2474,
  "glücklich": 2475,
  "ir": 2476,
  "kes": 2477,
  "Fähigkeit": 2478,
  "technologies": 2479,
  "üs@@": 2480,
  "Gedanken": 2481,
  "Ak@@": 2482,
  "opportunity": 2483,
  "nung": 2484,
  "Vortrag": 2485,
  "Verhalten": 2486,
  "brought": 2487,
  "Durch@@": 2488,
  "ograp@@": 2489,
  "anz@@": 2490,
  "feeling": 2491,
  "ctions": 2492,
  "Gl@@": 2493,
  "inv@@": 2494,
  ",000": 2495,
  "changes": 2496,
  "defin@@": 2497,
  "hast": 2498,
  "zer": 2499,
  "chts@@": 2500,
  "völlig": 2501,
  "wert": 2502,
  "fangen": 2503,
  "etz@@": 2504,
  "poor": 2505,
  "zuvor": 2506,
  "average": 2507,
  "regi@@": 2508,
  "giving": 2509,
  "mme": 2510,
  "-@@": 2511,
  "areas": 2512,
  "my@@": 2513,
  "beg@@": 2514,
  "tes@@": 2515,
  "cker": 2516,
  "wusste": 2517,
  "ät@@": 2518,
  "Schi@@": 2519,
  "hl": 2520,
  "gives": 2521,
  "Autos": 2522,
  "anderer": 2523,
  "weisen": 2524,
  "Liebe": 2525,
  "Ent@@": 2526,
  "ically": 2527,
  "fing": 2528,
  "theory": 2529,
  "personal": 2530,
  "anyone": 2531,
  "unk@@": 2532,
  "üb@@": 2533,
  "Video": 2534,
  "cket": 2535,
  "zweite": 2536,
  "blue": 2537,
  "manche": 2538,
  "bli@@": 2539,
  "Prozess": 2540,
  "playing": 2541,
  "usion": 2542,
  "Verbindung": 2543,
  "möchten": 2544,
  "lang@@": 2545,
  "gelernt": 2546,
  "ick": 2547,
  "dau@@": 2548,
  "bed": 2549,
  "cked": 2550,
  "patients": 2551,
  "vari@@": 2552,
  "Sü@@": 2553,
  "U.S.": 2554,
  "Wochen": 2555,
  "ffen": 2556,
  "posi@@": 2557,
  "wrote": 2558,
  "ration": 2559,
  "physi@@": 2560,
  "auth@@": 2561,
  "images": 2562,
  "wan@@": 2563,
  "nice": 2564,
  "Hy@@": 2565,
  "ke@@": 2566,
  "erschaffen": 2567,
  "bat@@": 2568,
  "innen": 2569,
  "amp": 2570,
  "Technologien": 2571,
  "mal@@": 2572,
  "non": 2573,
  "richten": 2574,
  "cars": 2575,
  "tend": 2576,
  "utz@@": 2577,
  "climate": 2578,
  "attention": 2579,
  "ei": 2580,
  "Namen": 2581,
  "Tages": 2582,
  "yo@@": 2583,
  "exp@@": 2584,
  "unde": 2585,
  "visu@@": 2586,
  "ös@@": 2587,
  "digen": 2588,
  "chung": 2589,
  "Rück@@": 2590,
  "beginnt": 2591,
  "Tri@@": 2592,
  "ank": 2593,
  "deep": 2594,
  "sil@@": 2595,
  "Ban@@": 2596,
  "equ@@": 2597,
  "identi@@": 2598,
  "Fol@@": 2599,
  "enth@@": 2600,
  "sum@@": 2601,
  "zeige": 2602,
  "fied": 2603,
  "unseres": 2604,
  "Mc@@": 2605,
  "What": 2606,
  "oper@@": 2607,
  "Ihren": 2608,
  "discovered": 2609,
  "sl@@": 2610,
  "draußen": 2611,
  "daraus": 2612,
  "literally": 2613,
  "tiny": 2614,
  "rit@@": 2615,
  "scientists": 2616,
  "bereit": 2617,
  "program": 2618,
  "stand@@": 2619,
  "patient": 2620,
  "mittel@@": 2621,
  "dem@@": 2622,
  "funktionieren": 2623,
  "Wer@@": 2624,
  "kin@@": 2625,
  "scheint": 2626,
  "pur@@": 2627,
  "ehen": 2628,
  "numbers": 2629,
  "mate": 2630,
  "brachte": 2631,
  "zehn": 2632,
  "shape": 2633,
  "alien": 2634,
  "cop@@": 2635,
  "fli@@": 2636,
  "Zahl": 2637,
  "bewusst": 2638,
  "Mars": 2639,
  "table": 2640,
  "speak": 2641,
  "morning": 2642,
  "liebe": 2643,
  "spi@@": 2644,
  "mel@@": 2645,
  "gewesen": 2646,
  "ented": 2647,
  "Wissenschaftler": 2648,
  "guten": 2649,
  "ette": 2650,
  "mache": 2651,
  "Aut@@": 2652,
  "understanding": 2653,
  "We@@": 2654,
  "ologie": 2655,
  "grap@@": 2656,
  "forms": 2657,
  "fir@@": 2658,
  "ll": 2659,
  "mag@@": 2660,
  "Mensch": 2661,
  "running": 2662,
  "ani@@": 2663,
  "schie@@": 2664,
  "erklären": 2665,
  "lage": 2666,
  "ton@@": 2667,
  "passieren": 2668,
  "seems": 2669,
  "Jahrhundert": 2670,
  "He@@": 2671,
  "vision": 2672,
  "geworden": 2673,
  "schaften": 2674,
  "300": 2675,
  "cy@@": 2676,
  "anz": 2677,
  "produce": 2678,
  "alone": 2679,
  "drei@@": 2680,
  "pat@@": 2681,
  "biolog@@": 2682,
  "cke": 2683,
  "nal": 2684,
  "Modell": 2685,
  "center": 2686,
  "denkt": 2687,
  "brea@@": 2688,
  "hervor@@": 2689,
  "Ni@@": 2690,
  "tools": 2691,
  "sionen": 2692,
  "aler": 2693,
  "fest": 2694,
  "miteinander": 2695,
  "challenge": 2696,
  "Richtung": 2697,
  "sehe": 2698,
  "Chris": 2699,
  "mensch@@": 2700,
  "prä@@": 2701,
  "Dar@@": 2702,
  "beide": 2703,
  "creating": 2704,
  "Schritt": 2705,
  "sau@@": 2706,
  "The@@": 2707,
  "board": 2708,
  "ching": 2709,
  "English": 2710,
  "sin@@": 2711,
  "Go@@": 2712,
  "ol": 2713,
  "ths": 2714,
  "ba@@": 2715,
  "Revolution": 2716,
  "krei@@": 2717,
  "bekommt": 2718,
  "Luft": 2719,
  "ak": 2720,
  "fully": 2721,
  "fliegen": 2722,
  "acc@@": 2723,
  "Reihe": 2724,
  "Mi@@": 2725,
  "Ländern": 2726,
  "gleich@@": 2727,
  "wie@@": 2728,
  "Hin@@": 2729,
  "individual": 2730,
  "kor@@": 2731,
  "oten": 2732,
  "llt": 2733,
  "result": 2734,
  "realize": 2735,
  "erzählt": 2736,
  "Dr.": 2737,
  "Pa@@": 2738,
  "Anzahl": 2739,
  "anstatt": 2740,
  "auen": 2741,
  "mine": 2742,
  "zz@@": 2743,
  "Technik": 2744,
  "typ@@": 2745,
  "schwierig": 2746,
  "anfangen": 2747,
  "wen@@": 2748,
  "white": 2749,
  "died": 2750,
  "focus": 2751,
  "fig@@": 2752,
  "Bel@@": 2753,
  "Ben@@": 2754,
  "physical": 2755,
  "arbeitet": 2756,
  "absolutely": 2757,
  "oh": 2758,
  "bekannt": 2759,
  "testen": 2760,
  "kleines": 2761,
  "changing": 2762,
  "Afghanistan": 2763,
  "arm": 2764,
  "arten": 2765,
  "hundreds": 2766,
  "Ele@@": 2767,
  "Tatsache": 2768,
  "nobody": 2769,
  "zellen": 2770,
  "quality": 2771,
  "ffe": 2772,
  "hom@@": 2773,
  "L": 2774,
  "poll@@": 2775,
  "access": 2776,
  "egal": 2777,
  "14": 2778,
  "wish": 2779,
  "genannt": 2780,
  "rise": 2781,
  "recently": 2782,
  "stor@@": 2783,
  "Boden": 2784,
  "CO2": 2785,
  "ücke": 2786,
  "R": 2787,
  "verwendet": 2788,
  "Situation": 2789,
  "ward": 2790,
  "gaben": 2791,
  "jemals": 2792,
  "bist": 2793,
  "ards": 2794,
  "setzt": 2795,
  "relationship": 2796,
  "eit": 2797,
  "soon": 2798,
  "ide@@": 2799,
  "uren": 2800,
  "sea": 2801,
  "ines": 2802,
  "millions": 2803,
  "elec@@": 2804,
  "solution": 2805,
  "ital": 2806,
  "niemals": 2807,
  "bal@@": 2808,
  "uses": 2809,
  "developing": 2810,
  "movement": 2811,
  "modern": 2812,
  "Amerika": 2813,
  "tief@@": 2814,
  "links": 2815,
  "obviously": 2816,
  "holen": 2817,
  "1,@@": 2818,
  "cho@@": 2819,
  "ulation": 2820,
  "plat@@": 2821,
  "gingen": 2822,
  "Wissen": 2823,
  "product": 2824,
  "0ern": 2825,
  "industry": 2826,
  "pol@@": 2827,
  "stell@@": 2828,
  "alis@@": 2829,
  "sicher@@": 2830,
  "anybody": 2831,
  "hoch@@": 2832,
  "autom@@": 2833,
  "acht": 2834,
  "AIDS": 2835,
  "ils": 2836,
  "plan": 2837,
  "stelle": 2838,
  "lagen": 2839,
  "ls": 2840,
  "ingly": 2841,
  "Ö@@": 2842,
  "bio@@": 2843,
  "ently": 2844,
  "größten": 2845,
  "ories": 2846,
  "designed": 2847,
  "illi@@": 2848,
  "rin@@": 2849,
  "Mu@@": 2850,
  "box": 2851,
  "spricht": 2852,
  "seem": 2853,
  "incredibly": 2854,
  "tel@@": 2855,
  "Wasser@@": 2856,
  "mic": 2857,
  "teil": 2858,
  "blood": 2859,
  "sym@@": 2860,
  "Muster": 2861,
  "aussehen": 2862,
  "gh": 2863,
  "Gemeinschaft": 2864,
  "knows": 2865,
  "Chinese": 2866,
  "map": 2867,
  "ppen": 2868,
  "gezeigt": 2869,
  "hlen": 2870,
  "leg@@": 2871,
  "gene": 2872,
  "London": 2873,
  "colle@@": 2874,
  "prin@@": 2875,
  "Studenten": 2876,
  "City": 2877,
  "connected": 2878,
  "sonst": 2879,
  "benutzt": 2880,
  "yed": 2881,
  "vers": 2882,
  "mul@@": 2883,
  "experiment": 2884,
  "ans@@": 2885,
  "dark": 2886,
  "Krieg": 2887,
  "available": 2888,
  "analy@@": 2889,
  "compassion": 2890,
  "Team": 2891,
  "ends": 2892,
  "bot@@": 2893,
  "showed": 2894,
  "hour": 2895,
  "gele@@": 2896,
  "Kraft": 2897,
  "present": 2898,
  "net@@": 2899,
  "hy@@": 2900,
  "Flug@@": 2901,
  "verbunden": 2902,
  "aut": 2903,
  "fru@@": 2904,
  "Mor@@": 2905,
  "Teile": 2906,
  "issue": 2907,
  "zieren": 2908,
  "Wahrheit": 2909,
  "Umgebung": 2910,
  "evolution": 2911,
  "begin": 2912,
  "han@@": 2913,
  "aufzu@@": 2914,
  "games": 2915,
  "send": 2916,
  "schlecht": 2917,
  "nachdenken": 2918,
  "Dis@@": 2919,
  "allein": 2920,
  "haven": 2921,
  "Selbst@@": 2922,
  "Haus@@": 2923,
  "asse": 2924,
  "moved": 2925,
  "fy": 2926,
  "writing": 2927,
  "tar@@": 2928,
  "late": 2929,
  "likely": 2930,
  "Wa@@": 2931,
  "zen@@": 2932,
  "Aufgabe": 2933,
  "leicht": 2934,
  "major": 2935,
  "radi@@": 2936,
  "entfernt": 2937,
  "ature": 2938,
  "kid": 2939,
  "bin@@": 2940,
  "Bildung": 2941,
  "especially": 2942,
  "ppe": 2943,
  "schrei@@": 2944,
  "sions": 2945,
  "talked": 2946,
  "solve": 2947,
  "schrieb": 2948,
  "guess": 2949,
  "24": 2950,
  "av@@": 2951,
  "jo@@": 2952,
  "ah": 2953,
  "Gesundheit": 2954,
  "generation": 2955,
  "prote@@": 2956,
  "ständig": 2957,
  "support": 2958,
  "feh@@": 2959,
  "Pal@@": 2960,
  "Ko@@": 2961,
  "innovation": 2962,
  "einzu@@": 2963,
  "usi@@": 2964,
  "alität": 2965,
  "eben": 2966,
  "color": 2967,
  "schaut": 2968,
  "Ihrem": 2969,
  "bom@@": 2970,
  "computers": 2971,
  "chern": 2972,
  "class": 2973,
  "allow": 2974,
  "Meinung": 2975,
  "micro@@": 2976,
  "bigger": 2977,
  "clo@@": 2978,
  "ace": 2979,
  "fron@@": 2980,
  "ost": 2981,
  "exis@@": 2982,
  "situation": 2983,
  "une": 2984,
  "bilden": 2985,
  "edi@@": 2986,
  "perfect": 2987,
  "ßt": 2988,
  "girls": 2989,
  "erreicht": 2990,
  "ens@@": 2991,
  "0,000": 2992,
  "Stu@@": 2993,
  "gas": 2994,
  "einfache": 2995,
  "ich@@": 2996,
  "fall@@": 2997,
  "Ihrer": 2998,
  "jemanden": 2999,
  "grü@@": 3000,
  "save": 3001,
  "geschrieben": 3002,
  "refle@@": 3003,
  "soziale": 3004,
  "Gu@@": 3005,
  "becomes": 3006,
  "stron@@": 3007,
  "effect": 3008,
  "hy": 3009,
  "explain": 3010,
  "Vorstellung": 3011,
  "ensch@@": 3012,
  "fallen": 3013,
  "Mal@@": 3014,
  "Lehr@@": 3015,
  "Herz@@": 3016,
  "War@@": 3017,
  "erk@@": 3018,
  "ods": 3019,
  "kleiner": 3020,
  "beyond": 3021,
  "statt": 3022,
  "lived": 3023,
  "Jo@@": 3024,
  "197@@": 3025,
  "depen@@": 3026,
  "Haupt@@": 3027,
  "Bedeutung": 3028,
  "interessan@@": 3029,
  "South": 3030,
  "happiness": 3031,
  "type": 3032,
  "drive": 3033,
  "machten": 3034,
  "reasons": 3035,
  "lebt": 3036,
  "Europe": 3037,
  "vers@@": 3038,
  "tag": 3039,
  "erst@@": 3040,
  "worth": 3041,
  "Führ@@": 3042,
  "Labor": 3043,
  "cer@@": 3044,
  "ander@@": 3045,
  "meet": 3046,
  "interessiert": 3047,
  "ath": 3048,
  "mitt@@": 3049,
  "pictures": 3050,
  "Wel@@": 3051,
  "ety": 3052,
  "West": 3053,
  "gesprochen": 3054,
  "stu@@": 3055,
  "geboren": 3056,
  "Foto": 3057,
  "stimmt": 3058,
  "Maschine": 3059,
  "Mil@@": 3060,
  "Sh@@": 3061,
  "Struktur": 3062,
  "chti@@": 3063,
  "tens": 3064,
  "national": 3065,
  "au": 3066,
  "hren": 3067,
  "clu@@": 3068,
  "Zeit@@": 3069,
  "main": 3070,
  "anden": 3071,
  "Rolle": 3072,
  "law": 3073,
  "loss": 3074,
  "stark": 3075,
  "don@@": 3076,
  "Platz": 3077,
  "finde": 3078,
  "Größe": 3079,
  "resources": 3080,
  "größ@@": 3081,
  "hoffe": 3082,
  "Richard": 3083,
  "Nacht": 3084,
  "carbon": 3085,
  "impact": 3086,
  "ages": 3087,
  "schle@@": 3088,
  "mental": 3089,
  "sm@@": 3090,
  "repres@@": 3091,
  "Rest": 3092,
  "bekam": 3093,
  "development": 3094,
  "nine": 3095,
  "alt@@": 3096,
  "beste": 3097,
  "offensichtlich": 3098,
  "eless": 3099,
  "komme": 3100,
  "hundred": 3101,
  "ants": 3102,
  "Veränderung": 3103,
  "rules": 3104,
  "not@@": 3105,
  "materials": 3106,
  "risk": 3107,
  "cat@@": 3108,
  "Land@@": 3109,
  "ian": 3110,
  "teach": 3111,
  "Groß@@": 3112,
  "verloren": 3113,
  "nei@@": 3114,
  "Hälfte": 3115,
  "active": 3116,
  "solar": 3117,
  "vo@@": 3118,
  "top@@": 3119,
  "special": 3120,
  "Mitte": 3121,
  "Reise": 3122,
  "ender": 3123,
  "Krankheit": 3124,
  "setz@@": 3125,
  "tigt": 3126,
  "absolut": 3127,
  "leben@@": 3128,
  "device": 3129,
  "dungen": 3130,
  "junge": 3131,
  "berei@@": 3132,
  "Herausforderung": 3133,
  "steh@@": 3134,
  "month": 3135,
  "similar": 3136,
  "Fran@@": 3137,
  "demon@@": 3138,
  "source": 3139,
  "chan@@": 3140,
  "wär@@": 3141,
  "alte": 3142,
  "medical": 3143,
  "putting": 3144,
  "kop@@": 3145,
  "hon@@": 3146,
  "gre@@": 3147,
  "gekommen": 3148,
  "Dan@@": 3149,
  "Hu@@": 3150,
  "schools": 3151,
  "lab": 3152,
  "Besch@@": 3153,
  "door": 3154,
  "predi@@": 3155,
  "sha@@": 3156,
  "eye": 3157,
  "13": 3158,
  "hält": 3159,
  "groups": 3160,
  "Wert": 3161,
  "action": 3162,
  "heutzutage": 3163,
  "eiten": 3164,
  "Erfolg": 3165,
  "sofort": 3166,
  "Freund": 3167,
  "neues": 3168,
  "several": 3169,
  "Mis@@": 3170,
  "ami": 3171,
  "Ding": 3172,
  "voller": 3173,
  "ishing": 3174,
  "Kinder@@": 3175,
  "ish@@": 3176,
  "elte": 3177,
  "Afri@@": 3178,
  "teilt": 3179,
  "tors": 3180,
  "All@@": 3181,
  "Generation": 3182,
  "kri@@": 3183,
  "dic@@": 3184,
  "Beziehung": 3185,
  "teachers": 3186,
  "äume": 3187,
  "Web": 3188,
  "mass": 3189,
  "meas@@": 3190,
  "nennt": 3191,
  "Oberfläche": 3192,
  "Br@@": 3193,
  "Bereich": 3194,
  "impro@@": 3195,
  "gegenüber": 3196,
  "gere@@": 3197,
  "towards": 3198,
  "activity": 3199,
  "stat@@": 3200,
  "fear": 3201,
  "welt@@": 3202,
  "digital": 3203,
  "fro@@": 3204,
  "sicht@@": 3205,
  "ron@@": 3206,
  "certainly": 3207,
  "ade": 3208,
  "Char@@": 3209,
  "Wi@@": 3210,
  "ash": 3211,
  "schließen": 3212,
  "bewegt": 3213,
  "minute": 3214,
  "basic": 3215,
  "issues": 3216,
  "plant": 3217,
  "sei@@": 3218,
  "voice": 3219,
  "wind": 3220,
  "Sicherheit": 3221,
  "ähnlich": 3222,
  "komplett": 3223,
  "evidence": 3224,
  "spro@@": 3225,
  "asking": 3226,
  "Wohl@@": 3227,
  "dachten": 3228,
  "tin": 3229,
  "road": 3230,
  "lag": 3231,
  "pla@@": 3232,
  "involved": 3233,
  "scientific": 3234,
  "street": 3235,
  "network": 3236,
  "ences": 3237,
  "schn@@": 3238,
  "tives": 3239,
  "term": 3240,
  "Sonne": 3241,
  "ow@@": 3242,
  "ig": 3243,
  "kn@@": 3244,
  "gesetzt": 3245,
  "lines": 3246,
  "trotzdem": 3247,
  "Je@@": 3248,
  "pra@@": 3249,
  "befinden": 3250,
  "kehr@@": 3251,
  "ators": 3252,
  "sam@@": 3253,
  "mani@@": 3254,
  "zustellen": 3255,
  "lieren": 3256,
  "Ti@@": 3257,
  "bed@@": 3258,
  "suddenly": 3259,
  "liert": 3260,
  "ange": 3261,
  "für@@": 3262,
  "normalerweise": 3263,
  "Firma": 3264,
  "X": 3265,
  "Vereinigten": 3266,
  "tex@@": 3267,
  "halt": 3268,
  "Forschung": 3269,
  "Por@@": 3270,
  "vorher@@": 3271,
  "10@@": 3272,
  "robot": 3273,
  "Kosten": 3274,
  "geschieht": 3275,
  "pattern": 3276,
  "baby": 3277,
  "Frei@@": 3278,
  "tells": 3279,
  "ctive": 3280,
  "N": 3281,
  "ready": 3282,
  "gearbeitet": 3283,
  "äs@@": 3284,
  "Mitgefühl": 3285,
  "Meter": 3286,
  "Fähigkeiten": 3287,
  "particularly": 3288,
  "wants": 3289,
  "Gesicht": 3290,
  "ath@@": 3291,
  "dent": 3292,
  "break": 3293,
  "mot@@": 3294,
  "gesamte": 3295,
  "position": 3296,
  "indeed": 3297,
  "ute": 3298,
  "appe@@": 3299,
  "$": 3300,
  "zieh@@": 3301,
  "brechen": 3302,
  "office": 3303,
  "qui@@": 3304,
  "ersch@@": 3305,
  "Gi@@": 3306,
  "mas@@": 3307,
  "Gel@@": 3308,
  "onto": 3309,
  "examples": 3310,
  "Mikro@@": 3311,
  "sounds": 3312,
  "sahen": 3313,
  "security": 3314,
  "dest": 3315,
  "Stimme": 3316,
  "gent@@": 3317,
  "anyway": 3318,
  "ads": 3319,
  "rief": 3320,
  "mung": 3321,
  "nan@@": 3322,
  "please": 3323,
  "wood": 3324,
  "az@@": 3325,
  "Sonnen@@": 3326,
  "cher@@": 3327,
  "speed": 3328,
  "Sto@@": 3329,
  "weltweit": 3330,
  "formed": 3331,
  "Schulen": 3332,
  "win": 3333,
  "Städte": 3334,
  "woh@@": 3335,
  "tischer": 3336,
  "perc@@": 3337,
  "tly": 3338,
  "passen": 3339,
  "acy": 3340,
  "Schu@@": 3341,
  "ition": 3342,
  "Wal@@": 3343,
  "ably": 3344,
  "object": 3345,
  "dead": 3346,
  "ise": 3347,
  "Straße": 3348,
  "mmen": 3349,
  "gleichzeitig": 3350,
  "bung": 3351,
  "nuclear": 3352,
  "schein@@": 3353,
  "tle": 3354,
  "teile": 3355,
  "dru@@": 3356,
  "nam@@": 3357,
  "herauszufinden": 3358,
  "Hel@@": 3359,
  "Wil@@": 3360,
  "Tran@@": 3361,
  "jen@@": 3362,
  "projects": 3363,
  "Ster@@": 3364,
  "tät": 3365,
  "igkeit": 3366,
  "notice": 3367,
  "fal@@": 3368,
  "chem@@": 3369,
  "chance": 3370,
  "Fak@@": 3371,
  "Zahlen": 3372,
  "Pat@@": 3373,
  "wall": 3374,
  "äre": 3375,
  "showing": 3376,
  "übrigens": 3377,
  "wieso": 3378,
  "total": 3379,
  "tas@@": 3380,
  "sprach": 3381,
  "Del@@": 3382,
  "Gesundheits@@": 3383,
  "Japan": 3384,
  "Hey": 3385,
  "aps": 3386,
  "progra@@": 3387,
  "zo@@": 3388,
  "Krie@@": 3389,
  "software": 3390,
  "gän@@": 3391,
  "sli@@": 3392,
  "läuft": 3393,
  "passi@@": 3394,
  "ended": 3395,
  "stay": 3396,
  "größer": 3397,
  "Preis": 3398,
  "span@@": 3399,
  "strong": 3400,
  "ück@@": 3401,
  "deten": 3402,
  "wann": 3403,
  "Regeln": 3404,
  "ite": 3405,
  "400": 3406,
  "Material": 3407,
  "mäch@@": 3408,
  "Kre@@": 3409,
  "enter@@": 3410,
  "explor@@": 3411,
  "walking": 3412,
  "Ken@@": 3413,
  "Kunst@@": 3414,
  "message": 3415,
  "lok@@": 3416,
  "ansehen": 3417,
  "truth": 3418,
  "nis@@": 3419,
  "Information": 3420,
  "ologen": 3421,
  "za@@": 3422,
  "Geb@@": 3423,
  "Hoffnung": 3424,
  "Arbeits@@": 3425,
  "Am@@": 3426,
  "Karte": 3427,
  "fassen": 3428,
  "University": 3429,
  "Wol@@": 3430,
  "länger": 3431,
  "follow": 3432,
  "Entwicklungs@@": 3433,
  "hit": 3434,
  "add": 3435,
  "glob@@": 3436,
  "sex@@": 3437,
  "ären": 3438,
  "bald": 3439,
  "glei@@": 3440,
  "Stand@@": 3441,
  "glichen": 3442,
  "boy": 3443,
  "plants": 3444,
  "U": 3445,
  "TV": 3446,
  "sent": 3447,
  "asch@@": 3448,
  "punkt": 3449,
  "mission": 3450,
  "squ@@": 3451,
  "skin": 3452,
  "wäl@@": 3453,
  "potential": 3454,
  "pick": 3455,
  "Ergebnis": 3456,
  "measure": 3457,
  "period": 3458,
  "ey@@": 3459,
  "zus@@": 3460,
  "kers": 3461,
  "wirk@@": 3462,
  "row": 3463,
  "gewal@@": 3464,
  "pac@@": 3465,
  "lis@@": 3466,
  "iel@@": 3467,
  "version": 3468,
  "enzen": 3469,
  "teacher": 3470,
  "zent@@": 3471,
  "starts": 3472,
  "democracy": 3473,
  "calcul@@": 3474,
  "ny": 3475,
  "ency": 3476,
  "olog@@": 3477,
  "exciting": 3478,
  "Markt": 3479,
  "everywhere": 3480,
  "Iran": 3481,
  "hinter@@": 3482,
  "zero": 3483,
  "Fe@@": 3484,
  "moral": 3485,
  "fire": 3486,
  "Seiten": 3487,
  "möglichen": 3488,
  "fur@@": 3489,
  "führte": 3490,
  "bul@@": 3491,
  "bru@@": 3492,
  "Fehler": 3493,
  "Tat": 3494,
  "Facebook": 3495,
  "vent@@": 3496,
  "sobald": 3497,
  "dam@@": 3498,
  "further": 3499,
  "National": 3500,
  "tzen": 3501,
  "Kontrolle": 3502,
  "letz@@": 3503,
  "int": 3504,
  "choice": 3505,
  "darf": 3506,
  "ror": 3507,
  "esen": 3508,
  "ierte": 3509,
  "del": 3510,
  "enor@@": 3511,
  "zü@@": 3512,
  "biggest": 3513,
  "lle": 3514,
  "schreck@@": 3515,
  "pros@@": 3516,
  "deli@@": 3517,
  "Bal@@": 3518,
  "Aufmerksamkeit": 3519,
  "smart": 3520,
  "Bücher": 3521,
  "fr@@": 3522,
  "Kl@@": 3523,
  "Erd@@": 3524,
  "gedacht": 3525,
  "mus": 3526,
  "ennen": 3527,
  "Studie": 3528,
  "pain@@": 3529,
  "passierte": 3530,
  "schneller": 3531,
  "Realität": 3532,
  "cause": 3533,
  "ließ": 3534,
  "fern": 3535,
  "hil@@": 3536,
  "tlich": 3537,
  "führ@@": 3538,
  "herum@@": 3539,
  "interest": 3540,
  "halb": 3541,
  "spar@@": 3542,
  "Computer@@": 3543,
  "sit": 3544,
  "Du": 3545,
  "code": 3546,
  "ink": 3547,
  "zeichnet": 3548,
  "geri@@": 3549,
  "tungen": 3550,
  "ca": 3551,
  "ön@@": 3552,
  "reach": 3553,
  "totally": 3554,
  "Studi@@": 3555,
  "fle@@": 3556,
  "ests": 3557,
  "nete": 3558,
  "reis": 3559,
  "assen": 3560,
  "Monaten": 3561,
  "gend@@": 3562,
  "isch@@": 3563,
  "lö@@": 3564,
  "kannst": 3565,
  "folgen": 3566,
  "einzelne": 3567,
  "student": 3568,
  "dur@@": 3569,
  "geführt": 3570,
  "mathema@@": 3571,
  "Tu@@": 3572,
  "treiben": 3573,
  "gemeinsam": 3574,
  "formen": 3575,
  "vergessen": 3576,
  "großer": 3577,
  "halte": 3578,
  "journey": 3579,
  "foot": 3580,
  "scht": 3581,
  "sugges@@": 3582,
  "sozi@@": 3583,
  "eil": 3584,
  "Demokratie": 3585,
  "196@@": 3586,
  "histor@@": 3587,
  "begannen": 3588,
  "frage": 3589,
  "Theorie": 3590,
  "mei@@": 3591,
  "African": 3592,
  "wichtiger": 3593,
  "Tre@@": 3594,
  "success": 3595,
  "essi@@": 3596,
  "17": 3597,
  "ckte": 3598,
  "Bill": 3599,
  "thousand": 3600,
  "lead": 3601,
  "approach": 3602,
  "Mot@@": 3603,
  "erungs@@": 3604,
  "imm@@": 3605,
  "wichtige": 3606,
  "gendes": 3607,
  "page": 3608,
  "langsam": 3609,
  "hielt": 3610,
  "Super@@": 3611,
  "volle": 3612,
  "kul@@": 3613,
  "bestimmt": 3614,
  "ina": 3615,
  "develop": 3616,
  "erin": 3617,
  "außerdem": 3618,
  "ession": 3619,
  "hört": 3620,
  "drama@@": 3621,
  "zw@@": 3622,
  "ain": 3623,
  "ähn@@": 3624,
  "genen": 3625,
  "extraordinary": 3626,
  "largest": 3627,
  "ität": 3628,
  "bessere": 3629,
  "dadurch": 3630,
  "iges": 3631,
  "Jahrzeh@@": 3632,
  "optim@@": 3633,
  "tate": 3634,
  "essentially": 3635,
  "richtige": 3636,
  "gewinnen": 3637,
  "rank@@": 3638,
  "Alter": 3639,
  "anschauen": 3640,
  "cla@@": 3641,
  "mil@@": 3642,
  "tho@@": 3643,
  "Entscheidungen": 3644,
  "dat@@": 3645,
  "flie@@": 3646,
  "virtu@@": 3647,
  "grew": 3648,
  "ihres": 3649,
  "Chi@@": 3650,
  "fähi@@": 3651,
  "philosop@@": 3652,
  "dert": 3653,
  "gest@@": 3654,
  "lä@@": 3655,
  "alized": 3656,
  "Tod": 3657,
  "bleibt": 3658,
  "wait": 3659,
  "Blick": 3660,
  "schul@@": 3661,
  "listen": 3662,
  "Pf@@": 3663,
  "cies": 3664,
  "Energi@@": 3665,
  "village": 3666,
  "mes": 3667,
  "verstanden": 3668,
  "außer": 3669,
  "dence": 3670,
  "vorher": 3671,
  "verbr@@": 3672,
  "products": 3673,
  "Umwelt": 3674,
  "points": 3675,
  "experim@@": 3676,
  "icht": 3677,
  "enter": 3678,
  "continue": 3679,
  "sitzen": 3680,
  "Spaß": 3681,
  "einig@@": 3682,
  "yle": 3683,
  "beobachten": 3684,
  "Bab@@": 3685,
  "Eis@@": 3686,
  "Evolution": 3687,
  "bedeut@@": 3688,
  "zig": 3689,
  "results": 3690,
  "aging": 3691,
  "weren": 3692,
  "greifen": 3693,
  "geln": 3694,
  "ables": 3695,
  "Europa": 3696,
  "revolution": 3697,
  "gegangen": 3698,
  "process@@": 3699,
  "Experiment": 3700,
  "klein@@": 3701,
  "minis@@": 3702,
  "among": 3703,
  "Vol@@": 3704,
  "verlieren": 3705,
  "zation": 3706,
  "sens@@": 3707,
  "künst@@": 3708,
  "bestimmten": 3709,
  "higher": 3710,
  "45": 3711,
  "richtigen": 3712,
  "omen": 3713,
  "Pi@@": 3714,
  "wussten": 3715,
  "older": 3716,
  "eventually": 3717,
  "Beh@@": 3718,
  "continu@@": 3719,
  "recor@@": 3720,
  "Paul": 3721,
  "zumindest": 3722,
  "versuchte": 3723,
  "tigkeit": 3724,
  "arbeitete": 3725,
  "let@@": 3726,
  "Proz@@": 3727,
  "buildings": 3728,
  "Pres@@": 3729,
  "watching": 3730,
  "sozialen": 3731,
  "extremely": 3732,
  "err@@": 3733,
  "will@@": 3734,
  "San": 3735,
  "Beispiele": 3736,
  "objects": 3737,
  "Bevölkerung": 3738,
  "Künstler": 3739,
  "drücken": 3740,
  "list": 3741,
  "econom@@": 3742,
  "Einfluss": 3743,
  "Öl": 3744,
  "ahn@@": 3745,
  "trees": 3746,
  "usually": 3747,
  "Rau@@": 3748,
  "organisi@@": 3749,
  "spek@@": 3750,
  "named": 3751,
  "Washington": 3752,
  "erwäh@@": 3753,
  "uss": 3754,
  "coun@@": 3755,
  "bank": 3756,
  "collabor@@": 3757,
  "1.@@": 3758,
  "Hoch@@": 3759,
  "ered": 3760,
  "gros@@": 3761,
  "sun": 3762,
  "Schw@@": 3763,
  "glück@@": 3764,
  "aufre@@": 3765,
  "brains": 3766,
  "ries": 3767,
  "gn@@": 3768,
  "Ra@@": 3769,
  "general": 3770,
  "rt": 3771,
  "Tagen": 3772,
  "Gruppen": 3773,
  "ures": 3774,
  "kol@@": 3775,
  "private": 3776,
  "Gebiet": 3777,
  "cs": 3778,
  "tnis": 3779,
  "standing": 3780,
  "visual": 3781,
  "produzieren": 3782,
  "camera": 3783,
  "verbessern": 3784,
  "rich": 3785,
  "verl@@": 3786,
  "dd@@": 3787,
  "Gan@@": 3788,
  "series": 3789,
  "educ@@": 3790,
  "Medien": 3791,
  "ately": 3792,
  "wards": 3793,
  "larger": 3794,
  "expect": 3795,
  "poverty": 3796,
  "Pl@@": 3797,
  "requ@@": 3798,
  "head@@": 3799,
  "movie": 3800,
  "somewhere": 3801,
  "leu@@": 3802,
  "electricity": 3803,
  "großes": 3804,
  "Regi@@": 3805,
  "sichti@@": 3806,
  "rup@@": 3807,
  "El@@": 3808,
  "safe": 3809,
  "kü@@": 3810,
  "zä@@": 3811,
  "Ser@@": 3812,
  "impossible": 3813,
  "pieces": 3814,
  "screen": 3815,
  "Mos@@": 3816,
  "wider@@": 3817,
  "nachzudenken": 3818,
  "spread": 3819,
  "abzu@@": 3820,
  "whe@@": 3821,
  "opp@@": 3822,
  "fantas@@": 3823,
  "att@@": 3824,
  "Orte": 3825,
  "fällt": 3826,
  "zep@@": 3827,
  "taught": 3828,
  "Dem@@": 3829,
  "fen@@": 3830,
  "fres@@": 3831,
  "Al": 3832,
  "van@@": 3833,
  "rück@@": 3834,
  "sorts": 3835,
  "ull": 3836,
  "back@@": 3837,
  "ills": 3838,
  "chtet": 3839,
  "Innovation": 3840,
  "Daten@@": 3841,
  "schwar@@": 3842,
  "deine": 3843,
  "Unterneh@@": 3844,
  "eht": 3845,
  "0er": 3846,
  "offen@@": 3847,
  "Wor@@": 3848,
  "sammeln": 3849,
  "North": 3850,
  "biology": 3851,
  "grand@@": 3852,
  "tem@@": 3853,
  "cultural": 3854,
  "allowed": 3855,
  "infe@@": 3856,
  "East": 3857,
  "mes@@": 3858,
  "spra@@": 3859,
  "cover": 3860,
  "cha@@": 3861,
  "site": 3862,
  "Menschheit": 3863,
  "Charles": 3864,
  "gste": 3865,
  "ystem": 3866,
  "Ki@@": 3867,
  "dance": 3868,
  "erzeugen": 3869,
  "dete@@": 3870,
  "bewe@@": 3871,
  "town": 3872,
  "creative": 3873,
  "role": 3874,
  "meaning": 3875,
  "Zwei@@": 3876,
  "ici@@": 3877,
  "ütz@@": 3878,
  "traditional": 3879,
  "messen": 3880,
  "sun@@": 3881,
  "Job": 3882,
  "Bewusstsein": 3883,
  "sowohl": 3884,
  "cal@@": 3885,
  "verlassen": 3886,
  "taten": 3887,
  "ini@@": 3888,
  "reichen": 3889,
  "except": 3890,
  "antwor@@": 3891,
  "ve@@": 3892,
  "alist": 3893,
  "elli@@": 3894,
  "swe@@": 3895,
  "Stelle": 3896,
  "entdecken": 3897,
  "aden": 3898,
  "expla@@": 3899,
  "versuche": 3900,
  "amen": 3901,
  "nenne": 3902,
  "above": 3903,
  "individuals": 3904,
  "serious": 3905,
  "trust": 3906,
  "früher": 3907,
  "Teil@@": 3908,
  "wed": 3909,
  "form@@": 3910,
  "Mü@@": 3911,
  "crazy": 3912,
  "erlaubt": 3913,
  "aussieht": 3914,
  "äumen": 3915,
  "hab": 3916,
  "Erfin@@": 3917,
  "doctor": 3918,
  "rän@@": 3919,
  "leaders": 3920,
  "diejenigen": 3921,
  "Kol@@": 3922,
  "supposed": 3923,
  "dep@@": 3924,
  "unger": 3925,
  "fine": 3926,
  "leider": 3927,
  "dre@@": 3928,
  "Vergangenheit": 3929,
  "minds": 3930,
  "conne@@": 3931,
  "hop@@": 3932,
  "Nachrichten": 3933,
  "bit@@": 3934,
  "lar@@": 3935,
  "Mathematik": 3936,
  "written": 3937,
  "multi@@": 3938,
  "jobs": 3939,
  "touch": 3940,
  "Wahl": 3941,
  "aller@@": 3942,
  "conditions": 3943,
  "domin@@": 3944,
  "drug": 3945,
  "eption": 3946,
  "werfen": 3947,
  "medicine": 3948,
  "bunch": 3949,
  "religi@@": 3950,
  "Spezies": 3951,
  "irgendwo": 3952,
  "pped": 3953,
  "Fel@@": 3954,
  "spielt": 3955,
  "sex": 3956,
  "ases": 3957,
  "öl@@": 3958,
  "Israel": 3959,
  "frei": 3960,
  "tool": 3961,
  "fun@@": 3962,
  "talks": 3963,
  "spec@@": 3964,
  "hlt": 3965,
  "atur": 3966,
  "lern": 3967,
  "stoff": 3968,
  "Tur@@": 3969,
  "favorite": 3970,
  "bet@@": 3971,
  "Sau@@": 3972,
  "finding": 3973,
  "tere": 3974,
  "fla@@": 3975,
  "models": 3976,
  "studies": 3977,
  "somehow": 3978,
  "sicht": 3979,
  "licht": 3980,
  "cru@@": 3981,
  "Telef@@": 3982,
  "schicken": 3983,
  "dige": 3984,
  "ützt": 3985,
  "clos@@": 3986,
  "schnitt": 3987,
  "hinaus": 3988,
  "fantastic": 3989,
  "schlä@@": 3990,
  "Wirklichkeit": 3991,
  "geschehen": 3992,
  "wach@@": 3993,
  "selbst@@": 3994,
  "hospital": 3995,
  "loc@@": 3996,
  "Politik": 3997,
  "wählen": 3998,
  "Fo@@": 3999,
  "conver@@": 4000,
  "Ros@@": 4001,
  "raten": 4002,
  "attra@@": 4003,
  "wit@@": 4004,
  "range": 4005,
  "ared": 4006,
  "bacteria": 4007,
  "Grenzen": 4008,
  "expensive": 4009,
  "drugs": 4010,
  "wife": 4011,
  "Sinne": 4012,
  "dynam@@": 4013,
  "complicated": 4014,
  "ney": 4015,
  "endlich": 4016,
  "lies": 4017,
  "Herz": 4018,
  "ble@@": 4019,
  "schlagen": 4020,
  "truly": 4021,
  "produc@@": 4022,
  "Zugang": 4023,
  "zeichnen": 4024,
  "diagnos@@": 4025,
  "abel": 4026,
  "gol@@": 4027,
  "bau": 4028,
  "2000": 4029,
  "shot": 4030,
  "effek@@": 4031,
  "jungen": 4032,
  "Medizin": 4033,
  "tain": 4034,
  "Prinzip": 4035,
  "Krankheiten": 4036,
  "essen@@": 4037,
  "stars": 4038,
  "goal": 4039,
  "dreht": 4040,
  "Vi@@": 4041,
  "fühlt": 4042,
  "tree": 4043,
  "rechts": 4044,
  "extra": 4045,
  "perspective": 4046,
  "Produkt": 4047,
  "crisis": 4048,
  "MIT": 4049,
  "worse": 4050,
  "großartige": 4051,
  "shown": 4052,
  "ous@@": 4053,
  "Lie@@": 4054,
  "zier@@": 4055,
  "ops": 4056,
  "trieben": 4057,
  "fühl@@": 4058,
  "aufgrund": 4059,
  "production": 4060,
  "Bei@@": 4061,
  "architecture": 4062,
  "J": 4063,
  "Fr@@": 4064,
  "Monat": 4065,
  "conc@@": 4066,
  "35": 4067,
  "tt": 4068,
  "H": 4069,
  "ations@@": 4070,
  "erle@@": 4071,
  "Stra@@": 4072,
  "college": 4073,
  "ners": 4074,
  "Sicht": 4075,
  "ordin@@": 4076,
  "chter@@": 4077,
  "Les@@": 4078,
  "klein": 4079,
  "neben": 4080,
  "Bü@@": 4081,
  "excited": 4082,
  "recei@@": 4083,
  "Universität": 4084,
  "spiel@@": 4085,
  "herstellen": 4086,
  "Orten": 4087,
  "Ter@@": 4088,
  "Gerät": 4089,
  "Kapit@@": 4090,
  "Mag@@": 4091,
  "Schl@@": 4092,
  "Gewalt": 4093,
  "eff@@": 4094,
  "ktionen": 4095,
  "fort": 4096,
  "faces": 4097,
  "income": 4098,
  "Tier": 4099,
  "trin@@": 4100,
  "connect": 4101,
  "pon@@": 4102,
  "respon@@": 4103,
  "dasselbe": 4104,
  "sent@@": 4105,
  "Pen@@": 4106,
  "neurons": 4107,
  "upon": 4108,
  "convin@@": 4109,
  "gewis@@": 4110,
  "Ebene": 4111,
  "posed": 4112,
  "cir@@": 4113,
  "reading": 4114,
  "peace": 4115,
  "including": 4116,
  "beauty": 4117,
  "1.": 4118,
  "bodies": 4119,
  "communities": 4120,
  "Das": 4121,
  "esti@@": 4122,
  "therefore": 4123,
  "faster": 4124,
  "cles": 4125,
  "killed": 4126,
  "Nachricht": 4127,
  "versor@@": 4128,
  "hat@@": 4129,
  "Amerikaner": 4130,
  "zul@@": 4131,
  "foot@@": 4132,
  "etc": 4133,
  "yl@@": 4134,
  "verse": 4135,
  "sion@@": 4136,
  "famous": 4137,
  "warten": 4138,
  "Typ": 4139,
  "price": 4140,
  "comm@@": 4141,
  "treatment": 4142,
  "schaft@@": 4143,
  "was@@": 4144,
  "ras@@": 4145,
  "tom@@": 4146,
  "Software": 4147,
  "pe": 4148,
  "samm@@": 4149,
  "sal@@": 4150,
  "Tas@@": 4151,
  "globalen": 4152,
  "wendung": 4153,
  "toll": 4154,
  "fäl@@": 4155,
  "gin@@": 4156,
  "co": 4157,
  "cases": 4158,
  "provi@@": 4159,
  "kämpfen": 4160,
  "training": 4161,
  "trag": 4162,
  "Ozean": 4163,
  "rein@@": 4164,
  "dream": 4165,
  "My@@": 4166,
  "thes@@": 4167,
  "healthy": 4168,
  "mark@@": 4169,
  "Dorf": 4170,
  "alive": 4171,
  "Atom@@": 4172,
  "Pot@@": 4173,
  "lungen": 4174,
  "ücken": 4175,
  "math": 4176,
  "stän@@": 4177,
  "combin@@": 4178,
  "einfa@@": 4179,
  "innov@@": 4180,
  "military": 4181,
  "eful": 4182,
  "scar@@": 4183,
  "ony": 4184,
  "eite": 4185,
  "bau@@": 4186,
  "kept": 4187,
  "region": 4188,
  "Tex@@": 4189,
  "ological": 4190,
  "ama": 4191,
  "studi@@": 4192,
  "Zusammen@@": 4193,
  "thei@@": 4194,
  "hundert": 4195,
  "satz": 4196,
  "Mus@@": 4197,
  "welcher": 4198,
  "entdeckt": 4199,
  "zin@@": 4200,
  "Ingenie@@": 4201,
  "response": 4202,
  "ord": 4203,
  "ght@@": 4204,
  "betrachtet": 4205,
  "Schüler": 4206,
  "wonder@@": 4207,
  "fight": 4208,
  "Formen": 4209,
  "Times": 4210,
  "Mas@@": 4211,
  "sou@@": 4212,
  "vier@@": 4213,
  "Sekunden": 4214,
  "sequ@@": 4215,
  "techn@@": 4216,
  "Schri@@": 4217,
  "ebenso": 4218,
  "hot": 4219,
  "virus": 4220,
  "pfen": 4221,
  "successful": 4222,
  "trägt": 4223,
  "himself": 4224,
  "ean": 4225,
  "unmöglich": 4226,
  "Köni@@": 4227,
  "V": 4228,
  "chst@@": 4229,
  "veränder@@": 4230,
  "kill": 4231,
  "waste": 4232,
  "smaller": 4233,
  "tradi@@": 4234,
  "Konfli@@": 4235,
  "We": 4236,
  "direc@@": 4237,
  "Einzel@@": 4238,
  "proje@@": 4239,
  "violence": 4240,
  "Körper@@": 4241,
  "amerikanischen": 4242,
  "Konzept": 4243,
  "Gem@@": 4244,
  "Mat@@": 4245,
  "physics": 4246,
  "handelt": 4247,
  "ulti@@": 4248,
  "mol@@": 4249,
  "Worte": 4250,
  "entweder": 4251,
  "yn@@": 4252,
  "Ergebnisse": 4253,
  "riesige": 4254,
  "fundamental": 4255,
  "Papier": 4256,
  "expres@@": 4257,
  "Programm": 4258,
  "Flu@@": 4259,
  "arbeite": 4260,
  "context": 4261,
  "bemer@@": 4262,
  "meant": 4263,
  "fort@@": 4264,
  "uss@@": 4265,
  "ügen": 4266,
  "tö@@": 4267,
  "150": 4268,
  "funktion@@": 4269,
  "iel": 4270,
  "verbinden": 4271,
  "hum@@": 4272,
  "Du@@": 4273,
  "families": 4274,
  "bing": 4275,
  "clearly": 4276,
  "flow": 4277,
  "transpor@@": 4278,
  "Linie": 4279,
  "steigen": 4280,
  "inner": 4281,
  "tici@@": 4282,
  "bestimmte": 4283,
  "dge": 4284,
  "choose": 4285,
  "cial": 4286,
  "sü@@": 4287,
  "hilft": 4288,
  "England": 4289,
  "eigen@@": 4290,
  "Gemein@@": 4291,
  "hlung": 4292,
  "US": 4293,
  "throughout": 4294,
  "Hom@@": 4295,
  "ehr": 4296,
  "val@@": 4297,
  "äuß@@": 4298,
  "patterns": 4299,
  "nutz@@": 4300,
  "stan@@": 4301,
  "Prot@@": 4302,
  "verb@@": 4303,
  "itäten": 4304,
  "content": 4305,
  "Bühne": 4306,
  "Armut": 4307,
  "dischen": 4308,
  "sell": 4309,
  "activ@@": 4310,
  "tivi@@": 4311,
  "neh@@": 4312,
  "Museum": 4313,
  "ght": 4314,
  "stellten": 4315,
  "Pil@@": 4316,
  "blind": 4317,
  "Personen": 4318,
  "moral@@": 4319,
  "amer@@": 4320,
  "passt": 4321,
  "stieg": 4322,
  "record": 4323,
  "schw@@": 4324,
  "tausende": 4325,
  "gefragt": 4326,
  "pain": 4327,
  "schöne": 4328,
  "Zeug": 4329,
  "square": 4330,
  "bran@@": 4331,
  "schafft": 4332,
  "niedri@@": 4333,
  "Familien": 4334,
  "ghts": 4335,
  "genes": 4336,
  "concept": 4337,
  "uns@@": 4338,
  "organization": 4339,
  "ited": 4340,
  "3D": 4341,
  "tis": 4342,
  "aufen": 4343,
  "einzelnen": 4344,
  "Tit@@": 4345,
  "James": 4346,
  "zogen": 4347,
  "thre@@": 4348,
  "Michael": 4349,
  "kit@@": 4350,
  "industri@@": 4351,
  "tisches": 4352,
  "ational": 4353,
  "Fotos": 4354,
  "Vir@@": 4355,
  "drehen": 4356,
  "thanks": 4357,
  "techni@@": 4358,
  "Firmen": 4359,
  "ual": 4360,
  "Den@@": 4361,
  "ax@@": 4362,
  "beings": 4363,
  "strange": 4364,
  "tiker": 4365,
  "male": 4366,
  "actual": 4367,
  "chnungen": 4368,
  "Einstein": 4369,
  "skills": 4370,
  "treat": 4371,
  "kauf@@": 4372,
  "entschieden": 4373,
  "Far@@": 4374,
  "solchen": 4375,
  "elektr@@": 4376,
  "öffnen": 4377,
  "di": 4378,
  "shi@@": 4379,
  "ches@@": 4380,
  "although": 4381,
  "ige": 4382,
  "Musli@@": 4383,
  "zunehmen": 4384,
  "erklärt": 4385,
  "großarti@@": 4386,
  "leisten": 4387,
  "einge@@": 4388,
  "solutions": 4389,
  "Methode": 4390,
  "gewöhn@@": 4391,
  "dom@@": 4392,
  "George": 4393,
  "recognize": 4394,
  "ermöglicht": 4395,
  "kar@@": 4396,
  "faszinier@@": 4397,
  "Architektur": 4398,
  "zweiten": 4399,
  "press": 4400,
  "blin@@": 4401,
  "2008": 4402,
  "Gleich@@": 4403,
  "stoffe": 4404,
  "Ordnung": 4405,
  "increase": 4406,
  "traf": 4407,
  "Psych@@": 4408,
  "earlier": 4409,
  "Span@@": 4410,
  "Meeres@@": 4411,
  "massive": 4412,
  "decision": 4413,
  "einfachen": 4414,
  "Sohn": 4415,
  "familiar": 4416,
  "Pe@@": 4417,
  "sky": 4418,
  "lek@@": 4419,
  "policy": 4420,
  "Americans": 4421,
  "bieten": 4422,
  "näher": 4423,
  "haft": 4424,
  "thers": 4425,
  "arbei@@": 4426,
  "Kli@@": 4427,
  "Pol@@": 4428,
  "dog": 4429,
  "tie@@": 4430,
  "swi@@": 4431,
  "Geist": 4432,
  "ät": 4433,
  "humanity": 4434,
  "Gene": 4435,
  "befindet": 4436,
  "kap@@": 4437,
  "however": 4438,
  "Geschäfts@@": 4439,
  "reich": 4440,
  "allows": 4441,
  "Bakterien": 4442,
  "unded": 4443,
  "machines": 4444,
  "mach@@": 4445,
  "mals": 4446,
  "zunächst": 4447,
  "Pos@@": 4448,
  "Erwachsen@@": 4449,
  "operation": 4450,
  "driving": 4451,
  "igkeiten": 4452,
  "interessante": 4453,
  "raus": 4454,
  "Maß@@": 4455,
  "costs": 4456,
  "Gründe": 4457,
  "ep": 4458,
  "listening": 4459,
  "gotten": 4460,
  "zieht": 4461,
  "Plas@@": 4462,
  "hör@@": 4463,
  "99": 4464,
  "gesamten": 4465,
  "ritte": 4466,
  "istic": 4467,
  "legt": 4468,
  "entscheiden": 4469,
  "Behandlung": 4470,
  "Nahrung": 4471,
  "san@@": 4472,
  "kraft": 4473,
  "vely": 4474,
  "Objekt": 4475,
  "Studien": 4476,
  "NASA": 4477,
  "hörte": 4478,
  "waiting": 4479,
  "seconds": 4480,
  "außerhalb": 4481,
  "invol@@": 4482,
  "pal@@": 4483,
  "Proje@@": 4484,
  "weight": 4485,
  "feld": 4486,
  "band": 4487,
  "pull": 4488,
  "Gal@@": 4489,
  "Farbe": 4490,
  "September": 4491,
  "invented": 4492,
  "plastic": 4493,
  "organ@@": 4494,
  "Ka@@": 4495,
  "Tie@@": 4496,
  "legs": 4497,
  "erstens": 4498,
  "yer": 4499,
  "fris@@": 4500,
  "lim@@": 4501,
  "Nummer": 4502,
  "lehr@@": 4503,
  "meter": 4504,
  "que": 4505,
  "dunk@@": 4506,
  "xi@@": 4507,
  "remarkable": 4508,
  "spre@@": 4509,
  "untersuchen": 4510,
  "consider": 4511,
  "benutz@@": 4512,
  "deswegen": 4513,
  "trifft": 4514,
  "Fi@@": 4515,
  "teaching": 4516,
  "aft": 4517,
  "service": 4518,
  "Versuch": 4519,
  "clim@@": 4520,
  "wissenschaft@@": 4521,
  "exist": 4522,
  "mein@@": 4523,
  "ingt": 4524,
  "kaum": 4525,
  "hän@@": 4526,
  "gic": 4527,
  "conven@@": 4528,
  "after@@": 4529,
  "Sal@@": 4530,
  "glich": 4531,
  "Interesse": 4532,
  "neun": 4533,
  "artist": 4534,
  "för@@": 4535,
  "thern": 4536,
  "ements": 4537,
  "essed": 4538,
  "Bon@@": 4539,
  "ogra@@": 4540,
  "erungen": 4541,
  "seite": 4542,
  "down@@": 4543,
  "dritte": 4544,
  "effective": 4545,
  "zeigte": 4546,
  "mehr@@": 4547,
  "reib@@": 4548,
  "related": 4549,
  "direction": 4550,
  "slow": 4551,
  "draw": 4552,
  "hole": 4553,
  "greater": 4554,
  "fertig": 4555,
  "freedom": 4556,
  "ima@@": 4557,
  "600": 4558,
  "Pflanzen": 4559,
  "provide": 4560,
  "ape": 4561,
  "ine@@": 4562,
  "5,000": 4563,
  "kommen@@": 4564,
  "adap@@": 4565,
  "seln": 4566,
  "75": 4567,
  "anywhere": 4568,
  "mile": 4569,
  "Million": 4570,
  "decisions": 4571,
  "Gei@@": 4572,
  "diversity": 4573,
  "fuel": 4574,
  "protect": 4575,
  "kra@@": 4576,
  "ves@@": 4577,
  "At@@": 4578,
  "ha": 4579,
  "cos@@": 4580,
  "wün@@": 4581,
  "bekan@@": 4582,
  "zeuge": 4583,
  "Twitter": 4584,
  "vit@@": 4585,
  "magic": 4586,
  "Himmel": 4587,
  "engineering": 4588,
  "poin@@": 4589,
  "ti": 4590,
  "Wirtschafts@@": 4591,
  "explo@@": 4592,
  "lit@@": 4593,
  "Ressourcen": 4594,
  "inte@@": 4595,
  "Designer": 4596,
  "date": 4597,
  "bisher": 4598,
  "robots": 4599,
  "lower": 4600,
  "osen": 4601,
  "progress": 4602,
  "ries@@": 4603,
  "Auswirkungen": 4604,
  "streng@@": 4605,
  "utter@@": 4606,
  "fair": 4607,
  "cope": 4608,
  "critical": 4609,
  "Geheim@@": 4610,
  "bst@@": 4611,
  "herzustellen": 4612,
  "blick": 4613,
  "chtes": 4614,
  "Name": 4615,
  "cle": 4616,
  "dangerous": 4617,
  "Artikel": 4618,
  "behaup@@": 4619,
  "chtigkeit": 4620,
  "Oze@@": 4621,
  "connection": 4622,
  "seines": 4623,
  "Ho@@": 4624,
  "ana": 4625,
  "surgery": 4626,
  "gesam@@": 4627,
  "dollar": 4628,
  "nos@@": 4629,
  "haf@@": 4630,
  "zimmer": 4631,
  "dec@@": 4632,
  "Kin@@": 4633,
  "getroffen": 4634,
  "School": 4635,
  "sequence": 4636,
  "Verständnis": 4637,
  "Poli@@": 4638,
  "Arzt": 4639,
  "0": 4640,
  "current": 4641,
  "großartig": 4642,
  "effizi@@": 4643,
  "Mittel": 4644,
  "Wachstum": 4645,
  "tierte": 4646,
  "store": 4647,
  "pot@@": 4648,
  "values": 4649,
  "bir@@": 4650,
  "Systeme": 4651,
  "Kollegen": 4652,
  "none": 4653,
  "Ad@@": 4654,
  "ht": 4655,
  "subject": 4656,
  "geschaffen": 4657,
  "greatest": 4658,
  "gest": 4659,
  "hi": 4660,
  "floor": 4661,
  "Schönheit": 4662,
  "keiner": 4663,
  "gehe": 4664,
  "ential": 4665,
  "spon@@": 4666,
  "gefähr@@": 4667,
  "teilung": 4668,
  "tig@@": 4669,
  "brauch": 4670,
  "Morgen": 4671,
  "Blo@@": 4672,
  "specific": 4673,
  "No": 4674,
  "conversation": 4675,
  "Gehirn@@": 4676,
  "Si@@": 4677,
  "deut@@": 4678,
  "docum@@": 4679,
  "außergewöhn@@": 4680,
  "wers": 4681,
  "ca.": 4682,
  "dlichen": 4683,
  "anymore": 4684,
  "verkaufen": 4685,
  "unfortunately": 4686,
  "lege": 4687,
  "designer": 4688,
  "Beginn": 4689,
  "smo@@": 4690,
  "sam": 4691,
  "travel": 4692,
  "near": 4693,
  "art@@": 4694,
  "song": 4695,
  "lea@@": 4696,
  "kultur@@": 4697,
  "erfahren": 4698,
  "perfe@@": 4699,
  "slide": 4700,
  "atten": 4701,
  "ehrlich": 4702,
  "path@@": 4703,
  "initi@@": 4704,
  "gehalten": 4705,
  "reise": 4706,
  "ähr@@": 4707,
  "simul@@": 4708,
  "religion": 4709,
  "Met@@": 4710,
  "Fre@@": 4711,
  "ebenfalls": 4712,
  "forming": 4713,
  "rat": 4714,
  "letztes": 4715,
  "reich@@": 4716,
  "encoura@@": 4717,
  "komplex@@": 4718,
  "fähig": 4719,
  "Lö@@": 4720,
  "ming": 4721,
  "ett": 4722,
  "nur@@": 4723,
  "rund": 4724,
  "besondere": 4725,
  "Lösungen": 4726,
  "abstra@@": 4727,
  "Pap@@": 4728,
  "begr@@": 4729,
  "verwand@@": 4730,
  "Strom": 4731,
  "eness": 4732,
  "retten": 4733,
  "flying": 4734,
  "chines@@": 4735,
  "Not@@": 4736,
  "Indi@@": 4737,
  "Dro@@": 4738,
  "Version": 4739,
  "gegen@@": 4740,
  "Q@@": 4741,
  "Landes": 4742,
  "train": 4743,
  "cons@@": 4744,
  "tains": 4745,
  "babies": 4746,
  "hie": 4747,
  "med": 4748,
  "function": 4749,
  "ativen": 4750,
  "Hände": 4751,
  "hängt": 4752,
  "immediately": 4753,
  "becoming": 4754,
  "merk@@": 4755,
  "bus@@": 4756,
  "erzählte": 4757,
  "performance": 4758,
  "Thomas": 4759,
  "ished": 4760,
  "reach@@": 4761,
  "non@@": 4762,
  "Mittel@@": 4763,
  "unglaubliche": 4764,
  "Blut@@": 4765,
  "mark": 4766,
  "Sym@@": 4767,
  "following": 4768,
  "mehrere": 4769,
  "wonder": 4770,
  "herausfinden": 4771,
  "endes": 4772,
  "recogni@@": 4773,
  "Zeitpunkt": 4774,
  "Gehirns": 4775,
  "aktu@@": 4776,
  "forces": 4777,
  "geschlossen": 4778,
  "Eis": 4779,
  "understood": 4780,
  "eting": 4781,
  "besu@@": 4782,
  "stellungen": 4783,
  "she@@": 4784,
  "raise": 4785,
  "cle@@": 4786,
  "Arm": 4787,
  "schli@@": 4788,
  "spor@@": 4789,
  "walked": 4790,
  "lie": 4791,
  "international": 4792,
  "lights": 4793,
  "chs@@": 4794,
  "Wand": 4795,
  "Gri@@": 4796,
  "tiger": 4797,
  "tra": 4798,
  "Rom@@": 4799,
  "Radi@@": 4800,
  "gst": 4801,
  "schu@@": 4802,
  "Än@@": 4803,
  "Chance": 4804,
  "Fil@@": 4805,
  "quar@@": 4806,
  "anda": 4807,
  "website": 4808,
  "km": 4809,
  "peri@@": 4810,
  "temperature": 4811,
  "repor@@": 4812,
  "z.B.": 4813,
  "hinzu@@": 4814,
  "Menschen@@": 4815,
  "Bezug": 4816,
  "brau@@": 4817,
  "nel": 4818,
  "Glei@@": 4819,
  "Kä@@": 4820,
  "forth": 4821,
  "alisi@@": 4822,
  "Uhr": 4823,
  "genetic": 4824,
  "Leidenschaft": 4825,
  "politics": 4826,
  "urban": 4827,
  "oms": 4828,
  "practice": 4829,
  "stung": 4830,
  "fis@@": 4831,
  "tual": 4832,
  "chnung": 4833,
  "Nigeria": 4834,
  "izi@@": 4835,
  "internation@@": 4836,
  "einzigen": 4837,
  "types": 4838,
  "intelligence": 4839,
  "forest": 4840,
  "erwarten": 4841,
  "überrasch@@": 4842,
  "erfolgreich": 4843,
  "schön@@": 4844,
  "disappe@@": 4845,
  "Punkte": 4846,
  "Bedürf@@": 4847,
  "Wesen": 4848,
  "Best@@": 4849,
  "iet": 4850,
  "conflict": 4851,
  "aware": 4852,
  "weis": 4853,
  "scho@@": 4854,
  "symmet@@": 4855,
  "eas@@": 4856,
  "lernte": 4857,
  "Wohn@@": 4858,
  "inclu@@": 4859,
  "aid": 4860,
  "rights": 4861,
  "grei@@": 4862,
  "chron@@": 4863,
  "ann": 4864,
  "motiv@@": 4865,
  "ckten": 4866,
  "stro@@": 4867,
  "erinnere": 4868,
  "ham": 4869,
  "by@@": 4870,
  "glaub@@": 4871,
  "fuhr": 4872,
  "Organisation": 4873,
  "rech@@": 4874,
  "advan@@": 4875,
  "clean": 4876,
  "Projekte": 4877,
  "extrem": 4878,
  "Freiheit": 4879,
  "Stunde": 4880,
  "print": 4881,
  "Region": 4882,
  "verrückt": 4883,
  "spreche": 4884,
  "thro@@": 4885,
  "Harvard": 4886,
  "wid@@": 4887,
  "ya": 4888,
  "ution": 4889,
  "wasser": 4890,
  "Western": 4891,
  "utes": 4892,
  "decade": 4893,
  "ichter": 4894,
  "gesell@@": 4895,
  "schönen": 4896,
  "kas": 4897,
  "hit@@": 4898,
  "vol@@": 4899,
  "pet@@": 4900,
  "useful": 4901,
  "environmental": 4902,
  "loved": 4903,
  "schlechte": 4904,
  "whose": 4905,
  "fundament@@": 4906,
  "Materialien": 4907,
  "schlag": 4908,
  "speaking": 4909,
  "unterschiedliche": 4910,
  "sight": 4911,
  "inen": 4912,
  "öffentlichen": 4913,
  "Straßen": 4914,
  "respe@@": 4915,
  "elten": 4916,
  "produced": 4917,
  "suff@@": 4918,
  "stick": 4919,
  "survive": 4920,
  "mess@@": 4921,
  "heat": 4922,
  "folgt": 4923,
  "Regierungen": 4924,
  "divi@@": 4925,
  "ursprün@@": 4926,
  "Dan": 4927,
  "consciousness": 4928,
  "heben": 4929,
  "stattdessen": 4930,
  "enormous": 4931,
  "behavi@@": 4932,
  "alism": 4933,
  "nation": 4934,
  "chtung": 4935,
  "gos": 4936,
  "entation": 4937,
  "Chin@@": 4938,
  "wirken": 4939,
  "Kr@@": 4940,
  "Mär@@": 4941,
  "fas@@": 4942,
  "Geh@@": 4943,
  "evolved": 4944,
  "trial": 4945,
  "älter": 4946,
  "öffnet": 4947,
  "institutions": 4948,
  "Jos@@": 4949,
  "Taus@@": 4950,
  "Bürger@@": 4951,
  "atory": 4952,
  "enced": 4953,
  "Auge": 4954,
  "dy@@": 4955,
  "various": 4956,
  "sustainable": 4957,
  "naja": 4958,
  "Beziehungen": 4959,
  "markets": 4960,
  "ears": 4961,
  "Center": 4962,
  "vollen": 4963,
  "Produkte": 4964,
  "Biologie": 4965,
  "doctors": 4966,
  "bewer@@": 4967,
  "states": 4968,
  "services": 4969,
  "Krankenhaus": 4970,
  "200@@": 4971,
  "Öl@@": 4972,
  "nehme": 4973,
  "Kap@@": 4974,
  "Selbst": 4975,
  "Wege": 4976,
  "Pla@@": 4977,
  "Wikipedia": 4978,
  "ran": 4979,
  "unt": 4980,
  "zweitens": 4981,
  "Quad@@": 4982,
  "hur@@": 4983,
  "final": 4984,
  "Mr.": 4985,
  "Jahrhunderts": 4986,
  "Don@@": 4987,
  "complete": 4988,
  "Ahnung": 4989,
  "heutigen": 4990,
  "Fot@@": 4991,
  "alization": 4992,
  "leist@@": 4993,
  "hinein": 4994,
  "tier@@": 4995,
  "thetic": 4996,
  "behandeln": 4997,
  "erstaun@@": 4998,
  "meeting": 4999,
  "verste@@": 5000,
  "dent@@": 5001,
  "ero@@": 5002,
  "Zustand": 5003,
  "funny": 5004,
  "euer": 5005,
  "tur": 5006,
  "195@@": 5007,
  "bat": 5008,
  "zusätz@@": 5009,
  "directly": 5010,
  "part@@": 5011,
  "television": 5012,
  "echt": 5013,
  "Op@@": 5014,
  "seh@@": 5015,
  "wander@@": 5016,
  "Nutz@@": 5017,
  "amin": 5018,
  "Desig@@": 5019,
  "played": 5020,
  "ände": 5021,
  "angefangen": 5022,
  "grade": 5023,
  "F": 5024,
  "Bur@@": 5025,
  "struc@@": 5026,
  "desig@@": 5027,
  "Raum@@": 5028,
  "lieb@@": 5029,
  "einz@@": 5030,
  "erer": 5031,
  "Wieder@@": 5032,
  "tiver": 5033,
  "cent@@": 5034,
  "akzep@@": 5035,
  "passion": 5036,
  "inspired": 5037,
  "levels": 5038,
  "Instru@@": 5039,
  "tivity": 5040,
  "Sar@@": 5041,
  "att": 5042,
  "zeit@@": 5043,
  "pair": 5044,
  "dein": 5045,
  "increas@@": 5046,
  "priv@@": 5047,
  "Gesetz": 5048,
  "achten": 5049,
  "ild": 5050,
  "stem": 5051,
  "äus@@": 5052,
  "interpre@@": 5053,
  "Worten": 5054,
  "schwi@@": 5055,
  "agree": 5056,
  "lebens@@": 5057,
  "Meer": 5058,
  "vice": 5059,
  "forget": 5060,
  "kostet": 5061,
  "tun@@": 5062,
  "wert@@": 5063,
  "17@@": 5064,
  "societies": 5065,
  "gan": 5066,
  "werk": 5067,
  "unique": 5068,
  "ließen": 5069,
  "ison": 5070,
  "kat@@": 5071,
  "Medikamente": 5072,
  "Grad": 5073,
  "creativity": 5074,
  "Republi@@": 5075,
  "billi@@": 5076,
  "mom": 5077,
  "rule": 5078,
  "actions": 5079,
  "eben@@": 5080,
  "sign": 5081,
  "War": 5082,
  "occu@@": 5083,
  "Kal@@": 5084,
  "dres@@": 5085,
  "path": 5086,
  "shar@@": 5087,
  "some@@": 5088,
  "obvious": 5089,
  "mitten": 5090,
  "maßen": 5091,
  "wenden": 5092,
  "Brü@@": 5093,
  "berg": 5094,
  "governments": 5095,
  "instance": 5096,
  "tert": 5097,
  "Nord@@": 5098,
  "reduc@@": 5099,
  "Nahrungs@@": 5100,
  "below": 5101,
  "experiments": 5102,
  "mostly": 5103,
  "Haut": 5104,
  "plus": 5105,
  "ruhi@@": 5106,
  "schaff@@": 5107,
  "agi@@": 5108,
  "bild": 5109,
  "fic@@": 5110,
  "main@@": 5111,
  "Licht@@": 5112,
  "sharing": 5113,
  "Pu@@": 5114,
  "droh@@": 5115,
  "dness": 5116,
  "X@@": 5117,
  "digung": 5118,
  "individu@@": 5119,
  "ehe": 5120,
  "bs@@": 5121,
  "wu@@": 5122,
  "ought": 5123,
  "chemical": 5124,
  "stände": 5125,
  "shared": 5126,
  "fragt": 5127,
  "vern@@": 5128,
  "ahead": 5129,
  "cou@@": 5130,
  "statt@@": 5131,
  "sodass": 5132,
  "Elek@@": 5133,
  "Eigenschaften": 5134,
  "Tier@@": 5135,
  "Die": 5136,
  "ade@@": 5137,
  "stecken": 5138,
  "anthrop@@": 5139,
  "sum": 5140,
  "networks": 5141,
  "recent": 5142,
  "Bra@@": 5143,
  "Beru@@": 5144,
  "jemandem": 5145,
  "handeln": 5146,
  "eating": 5147,
  "bia": 5148,
  "Zeiten": 5149,
  "Herzen": 5150,
  "Teilen": 5151,
  "Flugzeug": 5152,
  "liber@@": 5153,
  "It": 5154,
  "original": 5155,
  "tail": 5156,
  "photograph": 5157,
  "zahlen": 5158,
  "Jungen": 5159,
  "aper": 5160,
  "web": 5161,
  "helped": 5162,
  "lief": 5163,
  "lasst": 5164,
  "digt": 5165,
  "focused": 5166,
  "feed": 5167,
  "kr@@": 5168,
  "beru@@": 5169,
  "wissensch@@": 5170,
  "ular": 5171,
  "gender": 5172,
  "zug": 5173,
  "krie@@": 5174,
  "shor@@": 5175,
  "lad@@": 5176,
  "läu@@": 5177,
  "rieben": 5178,
  "ek": 5179,
  "career": 5180,
  "Steve": 5181,
  "kosten@@": 5182,
  "sorry": 5183,
  "grundle@@": 5184,
  "Liste": 5185,
  "nern": 5186,
  "überleben": 5187,
  "nachhal@@": 5188,
  "wichtigsten": 5189,
  "konzentrieren": 5190,
  "guter": 5191,
  "sicherlich": 5192,
  "zusehen": 5193,
  "agen": 5194,
  "echte": 5195,
  "fängt": 5196,
  "Zentrum": 5197,
  "cro@@": 5198,
  "police": 5199,
  "lebte": 5200,
  "wohin": 5201,
  "search": 5202,
  "utter": 5203,
  "workers": 5204,
  "ameras": 5205,
  "ple@@": 5206,
  "fel": 5207,
  "ancient": 5208,
  "birds": 5209,
  "inspiri@@": 5210,
  "possibly": 5211,
  "hear@@": 5212,
  "fund@@": 5213,
  "drop": 5214,
  "ial": 5215,
  "Informa@@": 5216,
  "Werkzeuge": 5217,
  "Indian": 5218,
  "loo@@": 5219,
  "jene": 5220,
  "wand": 5221,
  "greif@@": 5222,
  "erfunden": 5223,
  "Robert": 5224,
  "Netzwerk": 5225,
  "tered": 5226,
  "destro@@": 5227,
  "Strat@@": 5228,
  "Sha@@": 5229,
  "traum": 5230,
  "Religion": 5231,
  "Kamera": 5232,
  "digit@@": 5233,
  "größere": 5234,
  "discover": 5235,
  "phys@@": 5236,
  "quick": 5237,
  "fügen": 5238,
  "mobile": 5239,
  "kenne": 5240,
  "glass": 5241,
  "dad": 5242,
  "pping": 5243,
  "nahe": 5244,
  "elles": 5245,
  "geschafft": 5246,
  "summer": 5247,
  "bo": 5248,
  "gliche": 5249,
  "Francisco": 5250,
  "15@@": 5251,
  "rufen": 5252,
  "träge": 5253,
  "afrikan@@": 5254,
  "stero@@": 5255,
  "trade": 5256,
  "nation@@": 5257,
  "dische": 5258,
  "surro@@": 5259,
  "roman@@": 5260,
  "einhalb": 5261,
  "existiert": 5262,
  "therap@@": 5263,
  "Darwin": 5264,
  "Kri@@": 5265,
  "Typen": 5266,
  "Lau@@": 5267,
  "assu@@": 5268,
  "bringing": 5269,
  "mos@@": 5270,
  "ktor": 5271,
  "classi@@": 5272,
  "intervie@@": 5273,
  "scre@@": 5274,
  "track": 5275,
  "Zelle": 5276,
  "Freude": 5277,
  "twice": 5278,
  "orien": 5279,
  "liter@@": 5280,
  "erzeugt": 5281,
  "keits@@": 5282,
  "kompli@@": 5283,
  "Tor@@": 5284,
  "senden": 5285,
  "alismus": 5286,
  "schützen": 5287,
  "brauchte": 5288,
  "Christ@@": 5289,
  "fühlte": 5290,
  "zentr@@": 5291,
  "bemerkens@@": 5292,
  "bought": 5293,
  "expected": 5294,
  "öse": 5295,
  "Verl@@": 5296,
  "paid": 5297,
  "capit@@": 5298,
  "spiri@@": 5299,
  "complexity": 5300,
  "alisierung": 5301,
  "weis@@": 5302,
  "compon@@": 5303,
  "atom@@": 5304,
  "unterstützen": 5305,
  "tief": 5306,
  "Fin@@": 5307,
  "sus@@": 5308,
  "acting": 5309,
  "tz": 5310,
  "Finger": 5311,
  "tures": 5312,
  "2007": 5313,
  "straight": 5314,
  "task": 5315,
  "big@@": 5316,
  "birth": 5317,
  "spiel": 5318,
  "iete": 5319,
  "Betra@@": 5320,
  "buch": 5321,
  "Veränderungen": 5322,
  "extra@@": 5323,
  "wenige": 5324,
  "schätzen": 5325,
  "phones": 5326,
  "desto": 5327,
  "Konferenz": 5328,
  "Werte": 5329,
  "fit": 5330,
  "daughter": 5331,
  "fs@@": 5332,
  "omet@@": 5333,
  "esses": 5334,
  "globale": 5335,
  "Ori@@": 5336,
  "agen@@": 5337,
  "Atlan@@": 5338,
  "entfer@@": 5339,
  "push": 5340,
  "aged": 5341,
  "derung": 5342,
  "benen": 5343,
  "Auto@@": 5344,
  "geschichte": 5345,
  "van": 5346,
  "decide": 5347,
  "prepar@@": 5348,
  "Geschäft": 5349,
  "rie": 5350,
  "communication": 5351,
  "rus": 5352,
  "Entscheidung": 5353,
  "Wider@@": 5354,
  "scha@@": 5355,
  "discus@@": 5356,
  "purpose": 5357,
  "konzentri@@": 5358,
  "orig@@": 5359,
  "frühen": 5360,
  "verbringen": 5361,
  "komple@@": 5362,
  "la": 5363,
  "Rep@@": 5364,
  "swit@@": 5365,
  "verhalten": 5366,
  "Flü@@": 5367,
  "Des@@": 5368,
  "challenges": 5369,
  "Kra@@": 5370,
  "arden": 5371,
  "cure": 5372,
  "Tisch": 5373,
  "causes": 5374,
  "spr@@": 5375,
  "Im@@": 5376,
  "tungs@@": 5377,
  "alter": 5378,
  "Kampf": 5379,
  "gutes": 5380,
  "weite": 5381,
  "sat": 5382,
  "Kontin@@": 5383,
  "station": 5384,
  "effects": 5385,
  "Englisch": 5386,
  "efficient": 5387,
  "gas@@": 5388,
  "fälle": 5389,
  "unglaub@@": 5390,
  "gebe": 5391,
  "barkeit": 5392,
  "ele@@": 5393,
  "carry": 5394,
  "explore": 5395,
  "conference": 5396,
  "Recht": 5397,
  "ösen": 5398,
  "wur@@": 5399,
  "2010": 5400,
  "bü@@": 5401,
  "ush": 5402,
  "erz@@": 5403,
  "capacity": 5404,
  "Baby": 5405,
  "Part@@": 5406,
  "begonnen": 5407,
  "Ap@@": 5408,
  "eigenes": 5409,
  "eding": 5410,
  "seien": 5411,
  "ollen": 5412,
  "zeug": 5413,
  "tten": 5414,
  "aw@@": 5415,
  "speci@@": 5416,
  "selec@@": 5417,
  "igen": 5418,
  "un": 5419,
  "diseases": 5420,
  "nissen": 5421,
  "Erfahrungen": 5422,
  "exten@@": 5423,
  "post": 5424,
  "cold": 5425,
  "runter": 5426,
  "Street": 5427,
  "agre@@": 5428,
  "Wow": 5429,
  "rema@@": 5430,
  "spea@@": 5431,
  "uten": 5432,
  "Los": 5433,
  "Freund@@": 5434,
  "genutzt": 5435,
  "tom": 5436,
  "Traum": 5437,
  "größeren": 5438,
  "transl@@": 5439,
  "erleben": 5440,
  "Verantwortung": 5441,
  "Komplexität": 5442,
  "Cy@@": 5443,
  "scientist": 5444,
  "photograp@@": 5445,
  "Ober@@": 5446,
  "era": 5447,
  "ug": 5448,
  "eig@@": 5449,
  "Tieren": 5450,
  "rich@@": 5451,
  "Cha@@": 5452,
  "Maschinen": 5453,
  "keln": 5454,
  "erstaunlich": 5455,
  "Osten": 5456,
  "kosten": 5457,
  "itat": 5458,
  "entschied": 5459,
  "How": 5460,
  "Bank": 5461,
  "slightly": 5462,
  "spending": 5463,
  "transpar@@": 5464,
  "ausges@@": 5465,
  "Netz": 5466,
  "zierte": 5467,
  "iden@@": 5468,
  "particip@@": 5469,
  "Lar@@": 5470,
  "character": 5471,
  "Gro@@": 5472,
  "Virus": 5473,
  "Aktiv@@": 5474,
  "Büro": 5475,
  "Mark@@": 5476,
  "Erinn@@": 5477,
  "secret": 5478,
  "emotional": 5479,
  "tivität": 5480,
  "va": 5481,
  "molecules": 5482,
  "bits": 5483,
  "balance": 5484,
  "egi@@": 5485,
  "pressure": 5486,
  "financial": 5487,
  "terrible": 5488,
  "Westen": 5489,
  "Can@@": 5490,
  "wärts": 5491,
  "cent": 5492,
  "turning": 5493,
  "commit@@": 5494,
  "Geschwindigkeit": 5495,
  "läs@@": 5496,
  "geni@@": 5497,
  "dou@@": 5498,
  "yers": 5499,
  "schri@@": 5500,
  "Solar@@": 5501,
  "produziert": 5502,
  "decl@@": 5503,
  "vot@@": 5504,
  "supply": 5505,
  "00": 5506,
  "worry": 5507,
  "Regel": 5508,
  "central": 5509,
  "closer": 5510,
  "Ital@@": 5511,
  "ungspro@@": 5512,
  "MS": 5513,
  "fs": 5514,
  "wachsen@@": 5515,
  "führung": 5516,
  "soci@@": 5517,
  "glaubt": 5518,
  "schluss": 5519,
  "Fü@@": 5520,
  "og": 5521,
  "Islam": 5522,
  "degrees": 5523,
  "charge": 5524,
  "biological": 5525,
  "crow@@": 5526,
  "entscheiden@@": 5527,
  "Hü@@": 5528,
  "fän@@": 5529,
  "geschah": 5530,
  "schte": 5531,
  "12@@": 5532,
  "ld": 5533,
  "häu@@": 5534,
  "Tochter": 5535,
  "weiss": 5536,
  "heits@@": 5537,
  "sleep": 5538,
  "Ameri@@": 5539,
  "atmosphere": 5540,
  "designers": 5541,
  "anten": 5542,
  "capital": 5543,
  "ank@@": 5544,
  "boys": 5545,
  "Luft@@": 5546,
  "dying": 5547,
  "samen": 5548,
  "willing": 5549,
  "vorbei": 5550,
  "Natur@@": 5551,
  "Bas@@": 5552,
  "inc@@": 5553,
  "bieren": 5554,
  "Antworten": 5555,
  "Suche": 5556,
  "vacc@@": 5557,
  "pack@@": 5558,
  "hea@@": 5559,
  "abor@@": 5560,
  "ossen": 5561,
  "yn": 5562,
  "stration": 5563,
  "Bäume": 5564,
  "allerdings": 5565,
  "dorthin": 5566,
  "abhängi@@": 5567,
  "oes": 5568,
  "welt": 5569,
  "chair": 5570,
  "published": 5571,
  "sprech@@": 5572,
  "zeu@@": 5573,
  "Reaktion": 5574,
  "Klima@@": 5575,
  "lig": 5576,
  "Neuronen": 5577,
  "vermei@@": 5578,
  "Verfügung": 5579,
  "Spitze": 5580,
  "infrastructure": 5581,
  "beeinflusst": 5582,
  "attle": 5583,
  "jün@@": 5584,
  "bili@@": 5585,
  "chs": 5586,
  "len@@": 5587,
  "ray": 5588,
  "star": 5589,
  "bly": 5590,
  "unterst@@": 5591,
  "erlauben": 5592,
  "Tür": 5593,
  "event": 5594,
  "Wunsch": 5595,
  "ologist": 5596,
  "Gesprä@@": 5597,
  "artists": 5598,
  "tac@@": 5599,
  "tritt": 5600,
  "Schwar@@": 5601,
  "As@@": 5602,
  "aben": 5603,
  "trouble": 5604,
  "Tal@@": 5605,
  "kel@@": 5606,
  "emer@@": 5607,
  "sted": 5608,
  "decades": 5609,
  "fühle": 5610,
  "Dru@@": 5611,
  "glam@@": 5612,
  "Verbindungen": 5613,
  "human@@": 5614,
  "Ärzte": 5615,
  "intui@@": 5616,
  "arch@@": 5617,
  "änder@@": 5618,
  "memory": 5619,
  "leg": 5620,
  "gsten": 5621,
  "ätz@@": 5622,
  "aften": 5623,
  "tiere": 5624,
  "Fernseh@@": 5625,
  "phen": 5626,
  "surprising": 5627,
  "acts": 5628,
  "dea@@": 5629,
  "Kilometer": 5630,
  "ering": 5631,
  "ours": 5632,
  "text": 5633,
  "fä@@": 5634,
  "Farben": 5635,
  "einzigarti@@": 5636,
  "Red@@": 5637,
  "arbeiter": 5638,
  "sing@@": 5639,
  "cise": 5640,
  "consu@@": 5641,
  "Middle": 5642,
  "Vari@@": 5643,
  "formi@@": 5644,
  "Unterschiede": 5645,
  "laws": 5646,
  "haltung": 5647,
  "erfü@@": 5648,
  "verursacht": 5649,
  "gek@@": 5650,
  "tively": 5651,
  "tausend": 5652,
  "Cor@@": 5653,
  "significant": 5654,
  "broken": 5655,
  "heit@@": 5656,
  "Bru@@": 5657,
  "Gefühle": 5658,
  "institu@@": 5659,
  "vorzu@@": 5660,
  "fying": 5661,
  "achie@@": 5662,
  "genome": 5663,
  "somit": 5664,
  "flexi@@": 5665,
  "wuchs": 5666,
  "Hum@@": 5667,
  "ichts": 5668,
  "flies": 5669,
  "Son@@": 5670,
  "Sel@@": 5671,
  "primi@@": 5672,
  "modernen": 5673,
  "ites": 5674,
  "Coun@@": 5675,
  "nose": 5676,
  "kos@@": 5677,
  "enting": 5678,
  "Klasse": 5679,
  "super": 5680,
  "Abend": 5681,
  "oss": 5682,
  "Jer@@": 5683,
  "rap@@": 5684,
  "Infrastruktur": 5685,
  "tum": 5686,
  "California": 5687,
  "Resul@@": 5688,
  "archit@@": 5689,
  "devices": 5690,
  "Syn@@": 5691,
  "address": 5692,
  "Sex": 5693,
  "proper@@": 5694,
  "offen": 5695,
  "10,000": 5696,
  "stär@@": 5697,
  "usual": 5698,
  "ware": 5699,
  "tissue": 5700,
  "rechten": 5701,
  "vulner@@": 5702,
  "anischen": 5703,
  "Pakistan": 5704,
  "Denken": 5705,
  "Zusammenhang": 5706,
  "break@@": 5707,
  "Freunden": 5708,
  "lications": 5709,
  "technolog@@": 5710,
  "weiterhin": 5711,
  "aktiv": 5712,
  "inves@@": 5713,
  "apped": 5714,
  "power@@": 5715,
  "hot@@": 5716,
  "ele": 5717,
  "Kreativität": 5718,
  "ring": 5719,
  "highly": 5720,
  "ral": 5721,
  "members": 5722,
  "irgendwann": 5723,
  "creates": 5724,
  "schei@@": 5725,
  "etzen": 5726,
  "ause": 5727,
  "deutlich": 5728,
  "ku@@": 5729,
  "wissenschaftliche": 5730,
  "Boston": 5731,
  "wirst": 5732,
  "Gelegenheit": 5733,
  "habt": 5734,
  "run@@": 5735,
  "audi@@": 5736,
  "pect": 5737,
  "Mili@@": 5738,
  "wählt": 5739,
  "Gesellschaften": 5740,
  "21": 5741,
  "öffent@@": 5742,
  "hart": 5743,
  "conduc@@": 5744,
  "gelöst": 5745,
  "riesigen": 5746,
  "immer@@": 5747,
  "esten": 5748,
  "schien": 5749,
  "check": 5750,
  "eich@@": 5751,
  "YouTube": 5752,
  "hearing": 5753,
  "standard": 5754,
  "Kop@@": 5755,
  "Materie": 5756,
  "oxygen": 5757,
  "lon@@": 5758,
  "Nerven@@": 5759,
  "Nähe": 5760,
  "ading": 5761,
  "Neuro@@": 5762,
  "Wur@@": 5763,
  "Ansatz": 5764,
  "Universums": 5765,
  "Schei@@": 5766,
  "ority": 5767,
  "Sekunde": 5768,
  "kämp@@": 5769,
  "daß": 5770,
  "noticed": 5771,
  "pt": 5772,
  "load": 5773,
  "Physik": 5774,
  "rooms": 5775,
  "work@@": 5776,
  "schwier@@": 5777,
  "drin@@": 5778,
  "tremendous": 5779,
  "dimension@@": 5780,
  "Arab@@": 5781,
  "vering": 5782,
  "coffee": 5783,
  "GPS": 5784,
  "tili@@": 5785,
  "kontrollieren": 5786,
  "afen": 5787,
  "apart": 5788,
  "worst": 5789,
  "zur@@": 5790,
  "rational": 5791,
  "descri@@": 5792,
  "consum@@": 5793,
  "gei@@": 5794,
  "brachten": 5795,
  "neuro@@": 5796,
  "Ökos@@": 5797,
  "corner": 5798,
  "outh": 5799,
  "race": 5800,
  "natürliche": 5801,
  "rock": 5802,
  "ystem@@": 5803,
  "äd@@": 5804,
  "Dre@@": 5805,
  "Plan": 5806,
  "crimin@@": 5807,
  "structures": 5808,
  "rum": 5809,
  "Blu@@": 5810,
  "terna@@": 5811,
  "programs": 5812,
  "Wü@@": 5813,
  "Gebur@@": 5814,
  "relevant": 5815,
  "Funk@@": 5816,
  "scan@@": 5817,
  "popular": 5818,
  "emis@@": 5819,
  "Hil@@": 5820,
  "transp@@": 5821,
  "letztendlich": 5822,
  "travel@@": 5823,
  "gress": 5824,
  "sensi@@": 5825,
  "uting": 5826,
  "meters": 5827,
  "scri@@": 5828,
  "promis@@": 5829,
  "Da@@": 5830,
  "W": 5831,
  "assung": 5832,
  "differences": 5833,
  "lam@@": 5834,
  "planets": 5835,
  "selts@@": 5836,
  "studying": 5837,
  "wiederum": 5838,
  "eure": 5839,
  "bert": 5840,
  "iness": 5841,
  "folge": 5842,
  "rau@@": 5843,
  "Risi@@": 5844,
  "1,000": 5845,
  "lets": 5846,
  "depres@@": 5847,
  "stei@@": 5848,
  "benötigen": 5849,
  "een": 5850,
  "politische": 5851,
  "erinnert": 5852,
  "terri@@": 5853,
  "Es@@": 5854,
  "manufac@@": 5855,
  "xes": 5856,
  "Botschaft": 5857,
  "party": 5858,
  "cker@@": 5859,
  "calls": 5860,
  "verkauft": 5861,
  "investieren": 5862,
  "wen": 5863,
  "enst@@": 5864,
  "umzu@@": 5865,
  "Feu@@": 5866,
  "basis": 5867,
  "bares": 5868,
  "zige": 5869,
  "organi@@": 5870,
  "passed": 5871,
  "San@@": 5872,
  "citizens": 5873,
  "fung": 5874,
  "earth": 5875,
  "fläche": 5876,
  "flü@@": 5877,
  "einfacher": 5878,
  "tou@@": 5879,
  "Industrie": 5880,
  "moment@@": 5881,
  "Wirk@@": 5882,
  "mögliche": 5883,
  "flight": 5884,
  "journ@@": 5885,
  "erwartet": 5886,
  "hoffentlich": 5887,
  "dauert": 5888,
  "ellen@@": 5889,
  "improve": 5890,
  "Denk@@": 5891,
  "gical": 5892,
  "hair": 5893,
  "groß@@": 5894,
  "Fuß@@": 5895,
  "wiesen": 5896,
  "Umwelt@@": 5897,
  "popul@@": 5898,
  "teren": 5899,
  "sä@@": 5900,
  "ecos@@": 5901,
  "Vergleich": 5902,
  "uring": 5903,
  "flu": 5904,
  "Kö@@": 5905,
  "dagegen": 5906,
  "tei@@": 5907,
  "contin@@": 5908,
  "lands": 5909,
  "Spiele": 5910,
  "Familien@@": 5911,
  "Pra@@": 5912,
  "baut": 5913,
  "communicate": 5914,
  ".com": 5915,
  "Steu@@": 5916,
  "benötigt": 5917,
  "leid": 5918,
  "entstehen": 5919,
  "klingt": 5920,
  "edge": 5921,
  "limit@@": 5922,
  "erforschen": 5923,
  "gelegt": 5924,
  "davor": 5925,
  "evol@@": 5926,
  "para@@": 5927,
  "herr@@": 5928,
  "ues": 5929,
  "Mom@@": 5930,
  "aufgenommen": 5931,
  "politischen": 5932,
  "Progra@@": 5933,
  "losen": 5934,
  "suche": 5935,
  "Fle@@": 5936,
  "pris@@": 5937,
  "Park": 5938,
  "anges@@": 5939,
  "lear@@": 5940,
  "seemed": 5941,
  "erie": 5942,
  "trä@@": 5943,
  "pil@@": 5944,
  "meth@@": 5945,
  "amm@@": 5946,
  "Chirur@@": 5947,
  "weiten": 5948,
  "bestehen": 5949,
  "imag@@": 5950,
  "Wörter": 5951,
  "selber": 5952,
  "corpor@@": 5953,
  "lying": 5954,
  "pass": 5955,
  "argument": 5956,
  "frequ@@": 5957,
  "veröffent@@": 5958,
  "demo@@": 5959,
  "stück": 5960,
  "sozusagen": 5961,
  "Junge": 5962,
  "asen": 5963,
  "fabri@@": 5964,
  "öff@@": 5965,
  "condition": 5966,
  "organisms": 5967,
  "Ü@@": 5968,
  "ekt": 5969,
  "Wind": 5970,
  "astro@@": 5971,
  "ggl@@": 5972,
  "öh@@": 5973,
  "metho@@": 5974,
  "amerikanische": 5975,
  "fik": 5976,
  "Fuß": 5977,
  "fix": 5978,
  "daten": 5979,
  "AR@@": 5980,
  "notion": 5981,
  "ba": 5982,
  "colleagues": 5983,
  "System@@": 5984,
  "Sterne": 5985,
  "collap@@": 5986,
  "trotz": 5987,
  "core": 5988,
  "ermöglichen": 5989,
  "agt": 5990,
  "ires": 5991,
  "dennoch": 5992,
  "particles": 5993,
  "laden": 5994,
  "män@@": 5995,
  "wr@@": 5996,
  "graph": 5997,
  "mü@@": 5998,
  "landscape": 5999,
  "sters": 6000,
  "hyth@@": 6001,
  "necessarily": 6002,
  "Sat@@": 6003,
  "entlang": 6004,
  "trag@@": 6005,
  "contribu@@": 6006,
  "scheinen": 6007,
  "accep@@": 6008,
  "gement": 6009,
  "verfolgen": 6010,
  "jahr@@": 6011,
  "besser@@": 6012,
  "industrial": 6013,
  "pel": 6014,
  "Loch": 6015,
  "19": 6016,
  "sand": 6017,
  "wächst": 6018,
  "Jahres": 6019,
  "painting": 6020,
  "Hö@@": 6021,
  "electric": 6022,
  "Stamm@@": 6023,
  "return": 6024,
  "nearly": 6025,
  "reagieren": 6026,
  "phenomenon": 6027,
  "mming": 6028,
  "verdi@@": 6029,
  "ganzes": 6030,
  "neur@@": 6031,
  "suppor@@": 6032,
  "possibility": 6033,
  "ologi@@": 6034,
  "toren": 6035,
  "fortun@@": 6036,
  "easily": 6037,
  "choices": 6038,
  "imagination": 6039,
  "Chem@@": 6040,
  "ierten": 6041,
  "vement": 6042,
  "Sit@@": 6043,
  "revol@@": 6044,
  "gefä@@": 6045,
  "Iraq": 6046,
  "berühm@@": 6047,
  "thy": 6048,
  "New@@": 6049,
  "2005": 6050,
  "bitten": 6051,
  "entwickelten": 6052,
  "Spielen": 6053,
  "lik@@": 6054,
  "trei@@": 6055,
  "farmers": 6056,
  "Fein@@": 6057,
  "iled": 6058,
  "Institute": 6059,
  "stes": 6060,
  "experi@@": 6061,
  "zog": 6062,
  "zusetzen": 6063,
  "introduc@@": 6064,
  "sculp@@": 6065,
  "Krei@@": 6066,
  "iegel": 6067,
  "ells": 6068,
  "deep@@": 6069,
  "Mach@@": 6070,
  "eist@@": 6071,
  "boun@@": 6072,
  "oth": 6073,
  "erstes": 6074,
  "answers": 6075,
  "&apos;@@": 6076,
  "dimensional": 6077,
  "rechte": 6078,
  "electron@@": 6079,
  "achieve": 6080,
  "indi@@": 6081,
  "forma@@": 6082,
  "boat": 6083,
  "alisieren": 6084,
  "herausgefunden": 6085,
  "ätze": 6086,
  "emotion@@": 6087,
  "auft": 6088,
  "alls": 6089,
  "pounds": 6090,
  "tisi@@": 6091,
  "tal": 6092,
  "radio": 6093,
  "Todes@@": 6094,
  "behalten": 6095,
  "expon@@": 6096,
  "ignor@@": 6097,
  "Großbritannien": 6098,
  "teu@@": 6099,
  "fasst": 6100,
  "gens": 6101,
  "änge": 6102,
  "Mik@@": 6103,
  "ference": 6104,
  "Feh@@": 6105,
  "yellow": 6106,
  "helping": 6107,
  "Bedingungen": 6108,
  "shel@@": 6109,
  "65": 6110,
  "üssi@@": 6111,
  "denk@@": 6112,
  "verdienen": 6113,
  "appen": 6114,
  "dieselbe": 6115,
  "trained": 6116,
  "Strukturen": 6117,
  "iPhone": 6118,
  "relationships": 6119,
  "feels": 6120,
  "Fenster": 6121,
  "comfortable": 6122,
  "pli@@": 6123,
  "ize": 6124,
  "supp@@": 6125,
  "knowing": 6126,
  "Intelligenz": 6127,
  "zukünf@@": 6128,
  "tigung": 6129,
  "Einkommen": 6130,
  "interact": 6131,
  "ban": 6132,
  "tag@@": 6133,
  "cour@@": 6134,
  "städ@@": 6135,
  "bird": 6136,
  "bone": 6137,
  "Haiti": 6138,
  "Uni@@": 6139,
  "vention": 6140,
  "Chicago": 6141,
  "respect": 6142,
  "finanzi@@": 6143,
  "shift": 6144,
  "arian": 6145,
  "Klimawandel": 6146,
  "Obama": 6147,
  "meistens": 6148,
  "puzz@@": 6149,
  "etzt": 6150,
  "Spek@@": 6151,
  "neten": 6152,
  "mod@@": 6153,
  "ect": 6154,
  "Restau@@": 6155,
  "lautet": 6156,
  "ara": 6157,
  "sucht": 6158,
  "Diskus@@": 6159,
  "bruch": 6160,
  "Fer@@": 6161,
  "differently": 6162,
  "konstru@@": 6163,
  "beschäftigt": 6164,
  "moments": 6165,
  "freund@@": 6166,
  "definition": 6167,
  "Dok@@": 6168,
  "kehren": 6169,
  "roll@@": 6170,
  "organizations": 6171,
  "ela": 6172,
  "This": 6173,
  "steckt": 6174,
  "assem@@": 6175,
  "vie@@": 6176,
  "fiziert": 6177,
  "finished": 6178,
  "Untersu@@": 6179,
  "fairly": 6180,
  "erg@@": 6181,
  "necessary": 6182,
  "law@@": 6183,
  "Bild@@": 6184,
  "sle@@": 6185,
  "rain": 6186,
  "stadt": 6187,
  "schalten": 6188,
  "präsen@@": 6189,
  "Sor@@": 6190,
  "behandelt": 6191,
  "profit": 6192,
  "Kommunikation": 6193,
  "Nan@@": 6194,
  "möglicherweise": 6195,
  "druck": 6196,
  "arbeit": 6197,
  "Zusammenarbeit": 6198,
  "Vielfalt": 6199,
  "accoun@@": 6200,
  "kaner": 6201,
  "trieb": 6202,
  "sitzt": 6203,
  "Objekte": 6204,
  "reve@@": 6205,
  "setzung": 6206,
  "Regen@@": 6207,
  "vollkommen": 6208,
  "rob@@": 6209,
  "serve": 6210,
  "tations": 6211,
  "ologe": 6212,
  "ändert": 6213,
  "tolle": 6214,
  "keit": 6215,
  "figured": 6216,
  "tent": 6217,
  "enzi@@": 6218,
  "Atmosphäre": 6219,
  "John@@": 6220,
  "wass@@": 6221,
  "giant": 6222,
  "Sei@@": 6223,
  "gewonnen": 6224,
  "Bildungs@@": 6225,
  "engage": 6226,
  "bled": 6227,
  "lebten": 6228,
  "raum": 6229,
  "Ausbildung": 6230,
  "Emp@@": 6231,
  "Prin@@": 6232,
  "ernsth@@": 6233,
  "Position": 6234,
  "streets": 6235,
  "Ah": 6236,
  "Masse": 6237,
  "throw": 6238,
  "gin": 6239,
  "dents": 6240,
  "gestalten": 6241,
  "responsibility": 6242,
  "Medikam@@": 6243,
  "Höhe": 6244,
  "algorith@@": 6245,
  "gilt": 6246,
  "rying": 6247,
  "hous@@": 6248,
  "afraid": 6249,
  "stopped": 6250,
  "plac@@": 6251,
  "religious": 6252,
  "cel@@": 6253,
  "fication": 6254,
  "tran@@": 6255,
  "opportunities": 6256,
  "tren@@": 6257,
  "Bat@@": 6258,
  "ily": 6259,
  "tem": 6260,
  "ultimately": 6261,
  "erwar@@": 6262,
  "ante": 6263,
  "gelassen": 6264,
  "Asia": 6265,
  "vity": 6266,
  "Hinter@@": 6267,
  "conserv@@": 6268,
  "ticians": 6269,
  "foun@@": 6270,
  "saß": 6271,
  "attack": 6272,
  "sting": 6273,
  "besor@@": 6274,
  "prison": 6275,
  "lucky": 6276,
  "üsse": 6277,
  "ear": 6278,
  "kal@@": 6279,
  "Dimen@@": 6280,
  "Plan@@": 6281,
  "Paris": 6282,
  "Do@@": 6283,
  "laut": 6284,
  "reduce": 6285,
  "leading": 6286,
  "gelangen": 6287,
  "nochmal": 6288,
  "beeinflussen": 6289,
  "Hot@@": 6290,
  "Männern": 6291,
  "Fabri@@": 6292,
  "covered": 6293,
  "steigt": 6294,
  "Why": 6295,
  "brings": 6296,
  "eten": 6297,
  "gestell@@": 6298,
  "irs": 6299,
  "ony@@": 6300,
  "inger": 6301,
  "ric": 6302,
  "worüber": 6303,
  "entsteht": 6304,
  "bezahlen": 6305,
  "erve": 6306,
  "tain@@": 6307,
  "ation@@": 6308,
  "mut@@": 6309,
  "missing": 6310,
  "weiteren": 6311,
  "held": 6312,
  "buchstäblich": 6313,
  "Eff@@": 6314,
  "Karriere": 6315,
  "Ehr@@": 6316,
  "engine": 6317,
  "cont@@": 6318,
  "circu@@": 6319,
  "minister": 6320,
  "fik@@": 6321,
  "apping": 6322,
  "vollständig": 6323,
  "noise": 6324,
  "lat@@": 6325,
  "window": 6326,
  "Berei@@": 6327,
  "Russi@@": 6328,
  "zy@@": 6329,
  "unk": 6330,
  "influence": 6331,
  "neighb@@": 6332,
  "zufällig": 6333,
  "join": 6334,
  "ky": 6335,
  "reicht": 6336,
  "Schni@@": 6337,
  "wart": 6338,
  "bahn": 6339,
  "kun@@": 6340,
  "Energie@@": 6341,
  "female": 6342,
  "statisti@@": 6343,
  "kriegen": 6344,
  "kontrolli@@": 6345,
  "Fortschritt": 6346,
  "körper@@": 6347,
  "fün@@": 6348,
  "rein": 6349,
  "saving": 6350,
  "ening": 6351,
  "ologists": 6352,
  "neben@@": 6353,
  "creatures": 6354,
  "programmi@@": 6355,
  "umgehen": 6356,
  "primar@@": 6357,
  "distance": 6358,
  "Peter": 6359,
  "Organisationen": 6360,
  "osion": 6361,
  "hunderte": 6362,
  "besitzen": 6363,
  "newsp@@": 6364,
  "kommunizieren": 6365,
  "Kam@@": 6366,
  "Hall@@": 6367,
  "2009": 6368,
  "sogenan@@": 6369,
  "zigen": 6370,
  "gebildet": 6371,
  "Interak@@": 6372,
  "läch@@": 6373,
  "Druck": 6374,
  "hinein@@": 6375,
  "morgen": 6376,
  "flas@@": 6377,
  "äusch@@": 6378,
  "compar@@": 6379,
  "sinn@@": 6380,
  "tele@@": 6381,
  "mathematics": 6382,
  "communic@@": 6383,
  "Brenn@@": 6384,
  "negative": 6385,
  "eres": 6386,
  "extin@@": 6387,
  "apply": 6388,
  "Men@@": 6389,
  "Risiko": 6390,
  "expec@@": 6391,
  "Fernsehen": 6392,
  "bread": 6393,
  "competition": 6394,
  "Ama@@": 6395,
  "profession@@": 6396,
  "medizin@@": 6397,
  "Zau@@": 6398,
  "Gemeinde": 6399,
  "recht@@": 6400,
  "fragten": 6401,
  "Hir@@": 6402,
  "democra@@": 6403,
  "conscious": 6404,
  "yrami@@": 6405,
  "täglich": 6406,
  "custom@@": 6407,
  "veröffentlicht": 6408,
  "gezogen": 6409,
  "lesson": 6410,
  "Säu@@": 6411,
  "22": 6412,
  "bility": 6413,
  "freien": 6414,
  "endet": 6415,
  "Ker@@": 6416,
  "itze": 6417,
  "Rob@@": 6418,
  "oni@@": 6419,
  "vermutlich": 6420,
  "kop": 6421,
  "benefits": 6422,
  "typical": 6423,
  "dation": 6424,
  "forschung": 6425,
  "derzeit": 6426,
  "accur@@": 6427,
  "Scot@@": 6428,
  "elements": 6429,
  "Sommer": 6430,
  "Partner": 6431,
  "gestern": 6432,
  "enga@@": 6433,
  "20.": 6434,
  "neuer": 6435,
  "beschreiben": 6436,
  "Kos@@": 6437,
  "nächstes": 6438,
  "Was": 6439,
  "oud": 6440,
  "mountain": 6441,
  "ligen": 6442,
  "Videos": 6443,
  "Ernähr@@": 6444,
  "Sorgen": 6445,
  "bble": 6446,
  "benefit": 6447,
  "Gebäu@@": 6448,
  "durchgeführt": 6449,
  "attac@@": 6450,
  "ind": 6451,
  "Feuer": 6452,
  "erkan@@": 6453,
  "turing": 6454,
  "weiteres": 6455,
  "2.@@": 6456,
  "sites": 6457,
  "Kamp@@": 6458,
  "Tom": 6459,
  "visit": 6460,
  "Jungs": 6461,
  "unbedingt": 6462,
  "tiges": 6463,
  "töten": 6464,
  "lernt": 6465,
  "Gefängnis": 6466,
  "lichsten": 6467,
  "hauptsächlich": 6468,
  "lic": 6469,
  "British": 6470,
  "asses": 6471,
  "hergestellt": 6472,
  "etten": 6473,
  "profi@@": 6474,
  "civilization": 6475,
  "Philosop@@": 6476,
  "teen@@": 6477,
  "confi@@": 6478,
  "valu@@": 6479,
  "nutri@@": 6480,
  "Ausdruck": 6481,
  "Phili@@": 6482,
  "double": 6483,
  "Lernen": 6484,
  "alog@@": 6485,
  "discovery": 6486,
  "emplo@@": 6487,
  "bling": 6488,
  "kä@@": 6489,
  "Geräte": 6490,
  "stag": 6491,
  "ativ": 6492,
  "wild": 6493,
  "Vision": 6494,
  "Juli@@": 6495,
  "fascinating": 6496,
  "fold": 6497,
  "MR@@": 6498,
  "effort": 6499,
  "Milliarde": 6500,
  "slo@@": 6501,
  "linken": 6502,
  "Problemen": 6503,
  "Jobs": 6504,
  "nee": 6505,
  "krieg": 6506,
  "Augen@@": 6507,
  "hielten": 6508,
  "thiop@@": 6509,
  "Rea@@": 6510,
  "mir@@": 6511,
  "despite": 6512,
  "ried": 6513,
  "ami@@": 6514,
  "bol": 6515,
  "cycle": 6516,
  "unternehmen": 6517,
  "zeiten": 6518,
  "clin@@": 6519,
  "ota": 6520,
  "ples": 6521,
  "sis": 6522,
  "dien@@": 6523,
  "Jahr@@": 6524,
  "high@@": 6525,
  "engineers": 6526,
  "kno@@": 6527,
  "Rede": 6528,
  "Frieden": 6529,
  "Är@@": 6530,
  "potenti@@": 6531,
  "trib@@": 6532,
  "klär@@": 6533,
  "gabe": 6534,
  "schlie@@": 6535,
  "nets": 6536,
  "usive": 6537,
  "höch@@": 6538,
  "welchen": 6539,
  "aci@@": 6540,
  "hydro@@": 6541,
  "unterschiedlichen": 6542,
  "sätz@@": 6543,
  "adop@@": 6544,
  "Werkzeug": 6545,
  "Fisch": 6546,
  "west": 6547,
  "argum@@": 6548,
  "Physi@@": 6549,
  "Es": 6550,
  "hopefully": 6551,
  "degree": 6552,
  "fordert": 6553,
  "verständlich": 6554,
  "Ach@@": 6555,
  "push@@": 6556,
  "äten": 6557,
  "Süd@@": 6558,
  "stimm@@": 6559,
  "inven@@": 6560,
  "attemp@@": 6561,
  "Mau@@": 6562,
  "blu@@": 6563,
  "engineer": 6564,
  "wahre": 6565,
  "itable": 6566,
  "forever": 6567,
  "dom": 6568,
  "carto@@": 6569,
  "sold": 6570,
  "tempor@@": 6571,
  "cheap": 6572,
  "architec@@": 6573,
  "Uganda": 6574,
  "Island": 6575,
  "Phänomen": 6576,
  "wichtigste": 6577,
  "moves": 6578,
  "suffering": 6579,
  "Pop@@": 6580,
  "Bildern": 6581,
  "gradu@@": 6582,
  "weder": 6583,
  "cros@@": 6584,
  "gründet": 6585,
  "Eigen@@": 6586,
  "gehol@@": 6587,
  "werte": 6588,
  "gun": 6589,
  "enheit": 6590,
  "entwickelte": 6591,
  "starb": 6592,
  "fehl@@": 6593,
  "erstellen": 6594,
  "Bom@@": 6595,
  "raised": 6596,
  "filled": 6597,
  "betrifft": 6598,
  "romos@@": 6599,
  "ro": 6600,
  "Kir@@": 6601,
  "Seh@@": 6602,
  "Bus@@": 6603,
  "instru@@": 6604,
  "beein@@": 6605,
  "amm": 6606,
  "ED": 6607,
  "gefallen": 6608,
  "Boot": 6609,
  "appreci@@": 6610,
  "Meilen": 6611,
  "Willi@@": 6612,
  "begins": 6613,
  "profound": 6614,
  "wirtschaftlichen": 6615,
  "wunderbare": 6616,
  "Kunden": 6617,
  "Test": 6618,
  "Fällen": 6619,
  "Experimente": 6620,
  "Schau@@": 6621,
  "gru@@": 6622,
  "DH": 6623,
  "describe": 6624,
  "breast": 6625,
  "previ@@": 6626,
  "lab@@": 6627,
  "Hi@@": 6628,
  "Off@@": 6629,
  "atz": 6630,
  "compu@@": 6631,
  "zurückzu@@": 6632,
  "mothers": 6633,
  "mann": 6634,
  "überzeugt": 6635,
  "richtungen": 6636,
  "dungs@@": 6637,
  "Texas": 6638,
  "slowly": 6639,
  "resol@@": 6640,
  "isieren": 6641,
  "intensi@@": 6642,
  "Mand@@": 6643,
  "afford": 6644,
  "respond": 6645,
  "arbeiteten": 6646,
  "ov@@": 6647,
  "justice": 6648,
  "organis@@": 6649,
  "note": 6650,
  "lauf@@": 6651,
  "photo": 6652,
  "nee@@": 6653,
  "fashion": 6654,
  "tlichen": 6655,
  "mix@@": 6656,
  "aro@@": 6657,
  "perfekt": 6658,
  "Tradi@@": 6659,
  "fill": 6660,
  "erende": 6661,
  "sich@@": 6662,
  "hr": 6663,
  "PA": 6664,
  "responsible": 6665,
  "walls": 6666,
  "eds": 6667,
  "meat": 6668,
  "abetes": 6669,
  "ard@@": 6670,
  "Molekü@@": 6671,
  "Spr@@": 6672,
  "cell@@": 6673,
  "issen": 6674,
  "Diagra@@": 6675,
  "cross": 6676,
  "colors": 6677,
  "capable": 6678,
  "Vö@@": 6679,
  "puts": 6680,
  "Unterstützung": 6681,
  "Kern@@": 6682,
  "emotions": 6683,
  "nchen": 6684,
  "basiert": 6685,
  "catch": 6686,
  "Beine": 6687,
  "2,@@": 6688,
  "Wandel": 6689,
  "Organ@@": 6690,
  "Stro@@": 6691,
  "voc@@": 6692,
  "sts": 6693,
  "Nation@@": 6694,
  "Sah@@": 6695,
  "hohen": 6696,
  "Sie@@": 6697,
  "Budd@@": 6698,
  "95": 6699,
  "sorgen": 6700,
  "concent@@": 6701,
  "zeichen": 6702,
  "shouldn": 6703,
  "Sprachen": 6704,
  "fighting": 6705,
  "French": 6706,
  "ericht": 6707,
  "organic": 6708,
  "contro@@": 6709,
  "anst@@": 6710,
  "systema@@": 6711,
  "sick": 6712,
  "beteili@@": 6713,
  "Insekten": 6714,
  "kurze": 6715,
  "health@@": 6716,
  "Valley": 6717,
  "volu@@": 6718,
  "wissenschaftlichen": 6719,
  "Modelle": 6720,
  "Filme": 6721,
  "sichten": 6722,
  "setzte": 6723,
  "Investi@@": 6724,
  "shares": 6725,
  "traffic": 6726,
  "bees": 6727,
  "leads": 6728,
  "everyday": 6729,
  "Verk@@": 6730,
  "Finanz@@": 6731,
  "nes": 6732,
  "consumption": 6733,
  "lli@@": 6734,
  "Brot": 6735,
  "tauchen": 6736,
  "erhöh@@": 6737,
  "gui@@": 6738,
  "identity": 6739,
  "terror@@": 6740,
  "Schla@@": 6741,
  "alize": 6742,
  "entwerfen": 6743,
  "dolph@@": 6744,
  "importantly": 6745,
  "occur@@": 6746,
  "gelan@@": 6747,
  "tan": 6748,
  "billions": 6749,
  "CE@@": 6750,
  "Wettbewer@@": 6751,
  "dieren": 6752,
  "moun@@": 6753,
  "Hal@@": 6754,
  "betra@@": 6755,
  "helps": 6756,
  "Großteil": 6757,
  "Feld": 6758,
  "Sand@@": 6759,
  "besseren": 6760,
  "ala": 6761,
  "aling": 6762,
  "verbreitet": 6763,
  "stres@@": 6764,
  "speech": 6765,
  "Mess@@": 6766,
  "holding": 6767,
  "gegensei@@": 6768,
  "adults": 6769,
  "civil": 6770,
  "obje@@": 6771,
  "easier": 6772,
  "Ba@@": 6773,
  "Apple": 6774,
  "quote": 6775,
  "Aktivität": 6776,
  "ufen": 6777,
  "regel@@": 6778,
  "begeistert": 6779,
  "pengu@@": 6780,
  "atively": 6781,
  "func@@": 6782,
  "Brust@@": 6783,
  "otherwise": 6784,
  "titude": 6785,
  "gelesen": 6786,
  "Hirn@@": 6787,
  "Higgs": 6788,
  "stream": 6789,
  "Einsatz": 6790,
  "echten": 6791,
  "ja@@": 6792,
  "Fach@@": 6793,
  "tue": 6794,
  "überzeugen": 6795,
  "interessieren": 6796,
  "unch": 6797,
  "steps": 6798,
  "statistics": 6799,
  "addi@@": 6800,
  "copy": 6801,
  "Anti@@": 6802,
  "experiences": 6803,
  "contra@@": 6804,
  "prak@@": 6805,
  "factory": 6806,
  "irgendetwas": 6807,
  "Terror@@": 6808,
  "cen": 6809,
  "epide@@": 6810,
  "kümmern": 6811,
  "Vertrauen": 6812,
  "Trans@@": 6813,
  "card": 6814,
  "bewus@@": 6815,
  "Elektro@@": 6816,
  "Forsch@@": 6817,
  "Forschungs@@": 6818,
  "moder@@": 6819,
  "placed": 6820,
  "repe@@": 6821,
  "ieten": 6822,
  "Frie@@": 6823,
  "opposite": 6824,
  "versus": 6825,
  "gate": 6826,
  "erzähle": 6827,
  "sudden": 6828,
  "BF": 6829,
  "Experten": 6830,
  "surge@@": 6831,
  "pit@@": 6832,
  "fingen": 6833,
  "tot@@": 6834,
  "Kompon@@": 6835,
  "legal": 6836,
  "hunder@@": 6837,
  "schlu@@": 6838,
  "lös@@": 6839,
  "entirely": 6840,
  "Städten": 6841,
  "krebs": 6842,
  "inge": 6843,
  "hängen": 6844,
  "Perspektive": 6845,
  "mischen": 6846,
  "Ven@@": 6847,
  "Mond": 6848,
  "unsicht@@": 6849,
  "tze": 6850,
  "aly@@": 6851,
  "griff": 6852,
  "Hintergrund": 6853,
  "wirkt": 6854,
  "Wahrscheinlichkeit": 6855,
  "happ@@": 6856,
  "matters": 6857,
  "brilliant": 6858,
  "bot": 6859,
  "cool@@": 6860,
  "Fluss": 6861,
  "Moleküle": 6862,
  "falsche": 6863,
  "Ecke": 6864,
  "wisdom": 6865,
  "nä@@": 6866,
  "block": 6867,
  "verbracht": 6868,
  "inci@@": 6869,
  "zählen": 6870,
  "lieber": 6871,
  "ype": 6872,
  "invest": 6873,
  "klin@@": 6874,
  "motion": 6875,
  "background": 6876,
  "Metap@@": 6877,
  "Jon@@": 6878,
  "Soldaten": 6879,
  "ister": 6880,
  "steller": 6881,
  "seriously": 6882,
  "hau@@": 6883,
  "Stanford": 6884,
  "markt": 6885,
  "klass@@": 6886,
  "lack": 6887,
  "Massen@@": 6888,
  "jährige": 6889,
  "wunderbar": 6890,
  "Ca@@": 6891,
  "psy@@": 6892,
  "dene": 6893,
  "vergleichen": 6894,
  "Adam": 6895,
  "operating": 6896,
  "Vier@@": 6897,
  "Leistung": 6898,
  "promise": 6899,
  "vast": 6900,
  "modi@@": 6901,
  "alisiert": 6902,
  "separ@@": 6903,
  "präsentiert": 6904,
  "frie@@": 6905,
  "eigent@@": 6906,
  "Wen@@": 6907,
  "dist@@": 6908,
  "Pfle@@": 6909,
  "errei@@": 6910,
  "extreme": 6911,
  "exer@@": 6912,
  "constru@@": 6913,
  "schwer@@": 6914,
  "gefü@@": 6915,
  "insects": 6916,
  "determin@@": 6917,
  "nega@@": 6918,
  "fiel": 6919,
  "istenz": 6920,
  "bst": 6921,
  "dicht": 6922,
  "Stat@@": 6923,
  "14@@": 6924,
  "normally": 6925,
  "mutz@@": 6926,
  "micros@@": 6927,
  "strat@@": 6928,
  "Wür@@": 6929,
  "mouse": 6930,
  "Gew@@": 6931,
  "Gesetze": 6932,
  "therapy": 6933,
  "facili@@": 6934,
  "ury": 6935,
  "protein": 6936,
  "Basis": 6937,
  "Bürger": 6938,
  "fische": 6939,
  "cian": 6940,
  "predict": 6941,
  "lige": 6942,
  "sector": 6943,
  "är": 6944,
  "ischer@@": 6945,
  "caught": 6946,
  "woher": 6947,
  "ote@@": 6948,
  "Y": 6949,
  "kennt": 6950,
  "base": 6951,
  "foreign": 6952,
  "eien": 6953,
  "orienti@@": 6954,
  "Bush": 6955,
  "tural": 6956,
  "circle": 6957,
  "lied": 6958,
  "iling": 6959,
  "environ@@": 6960,
  "leaving": 6961,
  "nungen": 6962,
  "horri@@": 6963,
  "bekannten": 6964,
  "gruppe": 6965,
  "wohner": 6966,
  "effici@@": 6967,
  "fing@@": 6968,
  "gewisse": 6969,
  "wave": 6970,
  "tured": 6971,
  "offer": 6972,
  "ungs": 6973,
  "Imp@@": 6974,
  "Effekt": 6975,
  "kürzlich": 6976,
  "gnis": 6977,
  "normale": 6978,
  "Nutzen": 6979,
  "alleine": 6980,
  "Spezi@@": 6981,
  "erseits": 6982,
  "report": 6983,
  "Gar@@": 6984,
  "brauchten": 6985,
  "ped": 6986,
  "sister": 6987,
  "glücklicherweise": 6988,
  "zeich@@": 6989,
  "fotografi@@": 6990,
  "Gedanke": 6991,
  "suit": 6992,
  "Gründen": 6993,
  "dahin": 6994,
  "leiden": 6995,
  "Pingu@@": 6996,
  "moon": 6997,
  "eitet": 6998,
  "einsetzen": 6999,
  "events": 7000,
  "electro@@": 7001,
  "anderem": 7002,
  "Musik@@": 7003,
  "wahren": 7004,
  "concerned": 7005,
  "Kohlenst@@": 7006,
  "holt": 7007,
  "arms": 7008,
  "deeply": 7009,
  "blau@@": 7010,
  "bridge": 7011,
  "Stär@@": 7012,
  "könnt": 7013,
  "beat": 7014,
  "wachen": 7015,
  "Bildschirm": 7016,
  "soli@@": 7017,
  "according": 7018,
  "powered": 7019,
  "genie@@": 7020,
  "starke": 7021,
  "Hund": 7022,
  "warming": 7023,
  "perfectly": 7024,
  "erkannte": 7025,
  "Produk@@": 7026,
  "antly": 7027,
  "due": 7028,
  "tier": 7029,
  "Herausforderungen": 7030,
  "nie@@": 7031,
  "theore@@": 7032,
  "nannte": 7033,
  "ungskraft": 7034,
  "bemerkt": 7035,
  "saf@@": 7036,
  "praktisch": 7037,
  "molecule": 7038,
  "ähnliche": 7039,
  "itz": 7040,
  "Techni@@": 7041,
  "sitz@@": 7042,
  "studied": 7043,
  "stuck": 7044,
  "article": 7045,
  "Kno@@": 7046,
  "Schwester": 7047,
  "erster": 7048,
  "übri@@": 7049,
  "spaces": 7050,
  "versuchten": 7051,
  "übertragen": 7052,
  "lec@@": 7053,
  "Mehr@@": 7054,
  "obs@@": 7055,
  "enjoy": 7056,
  "rid": 7057,
  "stab": 7058,
  "Egyp@@": 7059,
  "Haufen": 7060,
  "wagen": 7061,
  "Irak": 7062,
  "beschrei@@": 7063,
  "prü@@": 7064,
  "tigte": 7065,
  "creation": 7066,
  "Che@@": 7067,
  "languages": 7068,
  "Drittel": 7069,
  "damage": 7070,
  "gespielt": 7071,
  "27": 7072,
  "maschine": 7073,
  "rain@@": 7074,
  "Norden": 7075,
  "besit@@": 7076,
  "principles": 7077,
  "count": 7078,
  "Eu@@": 7079,
  "Institutionen": 7080,
  "ease": 7081,
  "lichem": 7082,
  "dreh@@": 7083,
  "hinweg": 7084,
  "dritten": 7085,
  "eingesetzt": 7086,
  "stab@@": 7087,
  "belief": 7088,
  "Derek": 7089,
  "Schwier@@": 7090,
  "Swe@@": 7091,
  "ogni@@": 7092,
  "fields": 7093,
  "opened": 7094,
  "Pfer@@": 7095,
  "hn@@": 7096,
  "Webs@@": 7097,
  "TEDTal@@": 7098,
  "app": 7099,
  "sowie": 7100,
  "Dec@@": 7101,
  "allo@@": 7102,
  "2,000": 7103,
  "pper": 7104,
  "Schluss": 7105,
  "Frank": 7106,
  "nungs@@": 7107,
  "theit": 7108,
  "Microsoft": 7109,
  "galaxies": 7110,
  "impres@@": 7111,
  "crime": 7112,
  "acceler@@": 7113,
  "gentle@@": 7114,
  "Shi@@": 7115,
  "labor": 7116,
  "failure": 7117,
  "signal": 7118,
  "stran@@": 7119,
  "obil@@": 7120,
  "lit": 7121,
  "verletz@@": 7122,
  "verwen@@": 7123,
  "investment": 7124,
  "argue": 7125,
  "reas@@": 7126,
  "währ@@": 7127,
  "oceans": 7128,
  "zelle": 7129,
  "Qualität": 7130,
  "Great": 7131,
  "Mich@@": 7132,
  "energie": 7133,
  "Blut": 7134,
  "followed": 7135,
  "sparen": 7136,
  "willi@@": 7137,
  "thinks": 7138,
  "Strei@@": 7139,
  "stimul@@": 7140,
  "Klei@@": 7141,
  "ee": 7142,
  "gely": 7143,
  "demokra@@": 7144,
  "Oper@@": 7145,
  "Arbei@@": 7146,
  "verwandeln": 7147,
  "heads": 7148,
  "jump": 7149,
  "nar@@": 7150,
  "Klassen@@": 7151,
  "sac@@": 7152,
  "800": 7153,
  "hlten": 7154,
  "ernst": 7155,
  "Angeles": 7156,
  "verhindern": 7157,
  "Wach@@": 7158,
  "King": 7159,
  "gehabt": 7160,
  "majority": 7161,
  "entwick@@": 7162,
  "Babys": 7163,
  "believed": 7164,
  "Kontakt": 7165,
  "richtet": 7166,
  "ziel@@": 7167,
  "hate": 7168,
  "Wis@@": 7169,
  "zung": 7170,
  "schü@@": 7171,
  "kli@@": 7172,
  "ring@@": 7173,
  "Themen": 7174,
  "ball@@": 7175,
  "bestimmen": 7176,
  "survival": 7177,
  "Sim@@": 7178,
  "10.000": 7179,
  "atta@@": 7180,
  "günsti@@": 7181,
  "Sign@@": 7182,
  "Verletz@@": 7183,
  "fei@@": 7184,
  "wom@@": 7185,
  "ai": 7186,
  "5.000": 7187,
  "lin": 7188,
  "spiele": 7189,
  "reali@@": 7190,
  "enk": 7191,
  "Tro@@": 7192,
  "vey": 7193,
  "Ja@@": 7194,
  "gebro@@": 7195,
  "wohl@@": 7196,
  "tech": 7197,
  "onate": 7198,
  "zierten": 7199,
  "opini@@": 7200,
  "erfolgrei@@": 7201,
  "stern": 7202,
  "herunter@@": 7203,
  "2006": 7204,
  "economics": 7205,
  "deliver": 7206,
  "Innov@@": 7207,
  "Aufgaben": 7208,
  "einander@@": 7209,
  "staat@@": 7210,
  "Mensch@@": 7211,
  "bers": 7212,
  "früh@@": 7213,
  "museum": 7214,
  "exper@@": 7215,
  "schmer@@": 7216,
  "wealth": 7217,
  "Gewin@@": 7218,
  "Ben": 7219,
  "verursa@@": 7220,
  "photos": 7221,
  "dürfen": 7222,
  "stolz": 7223,
  "ald": 7224,
  "surprise": 7225,
  "drin": 7226,
  "appropri@@": 7227,
  "unterschie@@": 7228,
  "embra@@": 7229,
  "ouse": 7230,
  "univers@@": 7231,
  "Journ@@": 7232,
  "Waffen": 7233,
  "hohe": 7234,
  "Bil@@": 7235,
  "mindestens": 7236,
  "jud@@": 7237,
  "lass": 7238,
  "verantwortlich": 7239,
  "Mathema@@": 7240,
  "concep@@": 7241,
  "equal": 7242,
  "invisible": 7243,
  "hai": 7244,
  "glo@@": 7245,
  "mouth": 7246,
  "aten@@": 7247,
  "replic@@": 7248,
  "If": 7249,
  "sat@@": 7250,
  "park": 7251,
  "Martin": 7252,
  "schaute": 7253,
  "limited": 7254,
  "roll": 7255,
  "raus@@": 7256,
  "cks@@": 7257,
  "wear": 7258,
  "bekamen": 7259,
  "link": 7260,
  "verschie@@": 7261,
  "theorie": 7262,
  "osp@@": 7263,
  "College": 7264,
  "Schimpan@@": 7265,
  "adver@@": 7266,
  "getötet": 7267,
  "abhängig": 7268,
  "strei@@": 7269,
  "doppelt": 7270,
  "ständen": 7271,
  "Bos@@": 7272,
  "constantly": 7273,
  "treibt": 7274,
  "jährigen": 7275,
  "ery": 7276,
  "führten": 7277,
  "C.": 7278,
  "interagieren": 7279,
  "Grenze": 7280,
  "Pan@@": 7281,
  "Erkenntnis": 7282,
  "wisst": 7283,
  "resist@@": 7284,
  "managed": 7285,
  "soil": 7286,
  "bietet": 7287,
  "Oxford": 7288,
  "paint": 7289,
  "commercial": 7290,
  "transform": 7291,
  "failed": 7292,
  "brauche": 7293,
  "ored": 7294,
  "closed": 7295,
  "mö@@": 7296,
  "berech@@": 7297,
  "rais@@": 7298,
  "dauern": 7299,
  "Chr@@": 7300,
  "viruses": 7301,
  "designing": 7302,
  "rants": 7303,
  "Schwer@@": 7304,
  "Landwirtschaft": 7305,
  "disco@@": 7306,
  "prof@@": 7307,
  "atures": 7308,
  "gkeiten": 7309,
  "protot@@": 7310,
  "Begriff": 7311,
  "Wichti@@": 7312,
  "samer": 7313,
  "airplane": 7314,
  "bon@@": 7315,
  "geladen": 7316,
  "bezahlt": 7317,
  "define": 7318,
  "dynamic": 7319,
  "richtung": 7320,
  "destru@@": 7321,
  "2004": 7322,
  "richt": 7323,
  "dows": 7324,
  "nutzt": 7325,
  "gers": 7326,
  "teste": 7327,
  "gehören": 7328,
  "Prä@@": 7329,
  "verbess@@": 7330,
  "2001": 7331,
  "monit@@": 7332,
  "spo@@": 7333,
  "kön@@": 7334,
  "bedeuten": 7335,
  "generate": 7336,
  "begeg@@": 7337,
  "16@@": 7338,
  "Fra@@": 7339,
  "Wes@@": 7340,
  "vir@@": 7341,
  "Mexico": 7342,
  "Olymp@@": 7343,
  "Zent@@": 7344,
  "compare": 7345,
  "zubringen": 7346,
  "fif@@": 7347,
  "life@@": 7348,
  "fourth": 7349,
  "ordinary": 7350,
  "Videosp@@": 7351,
  "efully": 7352,
  "wick@@": 7353,
  "vote": 7354,
  "finger": 7355,
  "mie": 7356,
  "Tab@@": 7357,
  "barer": 7358,
  "bloß": 7359,
  "ough@@": 7360,
  "compared": 7361,
  "partment": 7362,
  "Sauerstoff": 7363,
  "plane": 7364,
  "exhi@@": 7365,
  "Impf@@": 7366,
  "Lern@@": 7367,
  "European": 7368,
  "planning": 7369,
  "brand": 7370,
  "Krebs@@": 7371,
  "Produ@@": 7372,
  "absol@@": 7373,
  "20th": 7374,
  "lichkeiten": 7375,
  "Erleb@@": 7376,
  "ama@@": 7377,
  "Eing@@": 7378,
  "ith": 7379,
  "desire": 7380,
  "Ke@@": 7381,
  "Konsequ@@": 7382,
  "Gefahr": 7383,
  "Präsident": 7384,
  "Korea": 7385,
  "wide": 7386,
  "satelli@@": 7387,
  "Höh@@": 7388,
  "Rätsel": 7389,
  "Man": 7390,
  "Lieblings@@": 7391,
  "Janu@@": 7392,
  "altet": 7393,
  "dar": 7394,
  "ergi@@": 7395,
  "Flä@@": 7396,
  "toward": 7397,
  "geschickt": 7398,
  "Kontext": 7399,
  "Karten": 7400,
  "Pflan@@": 7401,
  "gewand@@": 7402,
  "advantage": 7403,
  "Fas@@": 7404,
  "deta@@": 7405,
  "Gewicht": 7406,
  "Architek@@": 7407,
  "gain": 7408,
  "Austr@@": 7409,
  "oned": 7410,
  "gere": 7411,
  "Ball@@": 7412,
  "zess": 7413,
  "Os": 7414,
  "timi@@": 7415,
  "terie": 7416,
  "kombin@@": 7417,
  "prevent": 7418,
  "verschieden@@": 7419,
  "Bay": 7420,
  "Affen": 7421,
  "Sig@@": 7422,
  "ünf@@": 7423,
  "Lev@@": 7424,
  "shoes": 7425,
  "Gang": 7426,
  "däch@@": 7427,
  "kurzen": 7428,
  "Verhäl@@": 7429,
  "Gehirne": 7430,
  "childhood": 7431,
  "Eli@@": 7432,
  "Präsent@@": 7433,
  "increasingly": 7434,
  "verblü@@": 7435,
  "hun@@": 7436,
  "dienen": 7437,
  "fördern": 7438,
  "counter@@": 7439,
  "Tau@@": 7440,
  "Proble@@": 7441,
  "aufhören": 7442,
  "überrascht": 7443,
  "Organismen": 7444,
  "metaphor": 7445,
  "con": 7446,
  "Brazi@@": 7447,
  "nes@@": 7448,
  "akter@@": 7449,
  "häl@@": 7450,
  "weapons": 7451,
  "pen": 7452,
  "rural": 7453,
  "ior": 7454,
  "ough": 7455,
  "Tes@@": 7456,
  "coo@@": 7457,
  "taus@@": 7458,
  "agriculture": 7459,
  "23": 7460,
  "husband": 7461,
  "eline": 7462,
  "seat": 7463,
  "Gegenteil": 7464,
  "verrück@@": 7465,
  "highest": 7466,
  "Und": 7467,
  "letter": 7468,
  "brother": 7469,
  "paying": 7470,
  "cam@@": 7471,
  "wechsel@@": 7472,
  "whenever": 7473,
  "grown": 7474,
  "volunte@@": 7475,
  "debate": 7476,
  "Compu@@": 7477,
  "unkt": 7478,
  "Koh@@": 7479,
  "Ziele": 7480,
  "tile": 7481,
  "spüren": 7482,
  "intelligent": 7483,
  "fährt": 7484,
  "seitdem": 7485,
  "leren": 7486,
  "Hen@@": 7487,
  "shapes": 7488,
  "virtual": 7489,
  "Opfer": 7490,
  "email": 7491,
  "Fortsch@@": 7492,
  "Krankenh@@": 7493,
  "Ghana": 7494,
  "minim@@": 7495,
  "urch": 7496,
  "194@@": 7497,
  "harder": 7498,
  "Frü@@": 7499,
  "Herr": 7500,
  "stör@@": 7501,
  "Ton": 7502,
  "Antar@@": 7503,
  "onnen": 7504,
  "narra@@": 7505,
  "drückt": 7506,
  "open@@": 7507,
  "dreams": 7508,
  "Tür@@": 7509,
  "Staat@@": 7510,
  "On@@": 7511,
  "genauer": 7512,
  "Science": 7513,
  "26": 7514,
  "physic@@": 7515,
  "allge@@": 7516,
  "currently": 7517,
  "construction": 7518,
  "Para@@": 7519,
  "equivalent": 7520,
  "häufig": 7521,
  "appro@@": 7522,
  "unless": 7523,
  "aries": 7524,
  "SW": 7525,
  "spirit": 7526,
  "Bere@@": 7527,
  "Glück@@": 7528,
  "erforsch@@": 7529,
  "umge@@": 7530,
  "erhält": 7531,
  "treated": 7532,
  "opening": 7533,
  "ush@@": 7534,
  "osph@@": 7535,
  "Sozial@@": 7536,
  "2003": 7537,
  "Galaxien": 7538,
  "Ide@@": 7539,
  "losing": 7540,
  "Air@@": 7541,
  "dinner": 7542,
  "Fische": 7543,
  "organized": 7544,
  "affect": 7545,
  "Will@@": 7546,
  "sweise": 7547,
  "electrical": 7548,
  "separate": 7549,
  "inspiriert": 7550,
  "Erkrank@@": 7551,
  "onie": 7552,
  "weird": 7553,
  "zeug@@": 7554,
  "ignori@@": 7555,
  "beri@@": 7556,
  "disku@@": 7557,
  "Analy@@": 7558,
  "shif@@": 7559,
  "ada": 7560,
  "zahl": 7561,
  "Klin@@": 7562,
  "ancest@@": 7563,
  "modell": 7564,
  "wearing": 7565,
  "enty": 7566,
  "Samm@@": 7567,
  "gewicht": 7568,
  "Zell@@": 7569,
  "fisch": 7570,
  "angeneh@@": 7571,
  "Cra@@": 7572,
  "ländern": 7573,
  "Öffentlichkeit": 7574,
  "bern": 7575,
  "vic@@": 7576,
  "pun@@": 7577,
  "ggle": 7578,
  "flus@@": 7579,
  "That": 7580,
  "cin@@": 7581,
  "ines@@": 7582,
  "Nachbar@@": 7583,
  "wenig@@": 7584,
  "krank": 7585,
  "normalen": 7586,
  "Innen@@": 7587,
  "aming": 7588,
  "zeugen": 7589,
  "cognitive": 7590,
  "malaria": 7591,
  "milli@@": 7592,
  "gerät": 7593,
  "contr@@": 7594,
  "ckets": 7595,
  "din@@": 7596,
  "Dra@@": 7597,
  "tting": 7598,
  "erstaunliche": 7599,
  "berühr@@": 7600,
  "cans": 7601,
  "bereitet": 7602,
  "komplexe": 7603,
  "General": 7604,
  "multiple": 7605,
  "argu@@": 7606,
  "ungewöhn@@": 7607,
  "wegs": 7608,
  "Händen": 7609,
  "Minute": 7610,
  "Argum@@": 7611,
  "entieren": 7612,
  "platz": 7613,
  "Lebewesen": 7614,
  "gry": 7615,
  "pages": 7616,
  "las": 7617,
  "layer": 7618,
  "ump": 7619,
  "öffentliche": 7620,
  "tough": 7621,
  "neighborhood": 7622,
  "Bron@@": 7623,
  "zin": 7624,
  "Schwe@@": 7625,
  "wil@@": 7626,
  "gency": 7627,
  "driven": 7628,
  "tage": 7629,
  "existieren": 7630,
  "Identität": 7631,
  "schlimmer": 7632,
  "systeme": 7633,
  "Individuen": 7634,
  "höher": 7635,
  "approach@@": 7636,
  "agers": 7637,
  "Wahrnehmung": 7638,
  "grund": 7639,
  "pfe": 7640,
  "hidden": 7641,
  "Nationen": 7642,
  "krank@@": 7643,
  "unterscheiden": 7644,
  "explan@@": 7645,
  "Rak@@": 7646,
  "verbreiten": 7647,
  "erenden": 7648,
  "alisten": 7649,
  "amed": 7650,
  "einiger": 7651,
  "ruf": 7652,
  "Baum": 7653,
  "schwieri@@": 7654,
  "Schwan@@": 7655,
  "thesis": 7656,
  "proud": 7657,
  "roten": 7658,
  "250": 7659,
  "niem@@": 7660,
  "galaxy": 7661,
  "ökonom@@": 7662,
  "stitu@@": 7663,
  "Patient": 7664,
  "vehicle": 7665,
  "Defin@@": 7666,
  "wake": 7667,
  "facts": 7668,
  "Ihres": 7669,
  "practic@@": 7670,
  "32": 7671,
  "random": 7672,
  "universal": 7673,
  "führer": 7674,
  "BC": 7675,
  "names": 7676,
  "nah": 7677,
  "deter@@": 7678,
  "gestal@@": 7679,
  "Vo@@": 7680,
  "described": 7681,
  "caused": 7682,
  "gather@@": 7683,
  "drüben": 7684,
  "distribution": 7685,
  "negoti@@": 7686,
  "emotion": 7687,
  "Therap@@": 7688,
  "professional": 7689,
  "exists": 7690,
  "cortex": 7691,
  "ehrt": 7692,
  "muscle": 7693,
  "Chemik@@": 7694,
  "thir@@": 7695,
  "drawing": 7696,
  "graduate": 7697,
  "smus": 7698,
  "Krise": 7699,
  "sug@@": 7700,
  "vö@@": 7701,
  "campaign": 7702,
  "gegenwär@@": 7703,
  "invited": 7704,
  "Verstand": 7705,
  "keys": 7706,
  "principle": 7707,
  "appar@@": 7708,
  "dliche": 7709,
  "generations": 7710,
  "Rahmen": 7711,
  "finan@@": 7712,
  "Teilchen": 7713,
  "hoffen": 7714,
  "langwei@@": 7715,
  "unge@@": 7716,
  "stoff@@": 7717,
  "Netz@@": 7718,
  "signals": 7719,
  "corruption": 7720,
  "Gegensatz": 7721,
  "beinhal@@": 7722,
  "generi@@": 7723,
  "continent": 7724,
  "Netzwerke": 7725,
  "strate": 7726,
  "schir@@": 7727,
  "forder@@": 7728,
  "dimensions": 7729,
  "aturen": 7730,
  "tsam": 7731,
  "worried": 7732,
  "ug@@": 7733,
  "Elemente": 7734,
  "camp@@": 7735,
  "Emotionen": 7736,
  "grandmother": 7737,
  "classroom": 7738,
  "bles": 7739,
  "zehn@@": 7740,
  "leh@@": 7741,
  "Geschä@@": 7742,
  "Außen@@": 7743,
  "Laufe": 7744,
  "Mütter": 7745,
  "succe@@": 7746,
  "counter": 7747,
  "aufbauen": 7748,
  "leaves": 7749,
  "Spa@@": 7750,
  "breitung": 7751,
  "Generationen": 7752,
  "Sun": 7753,
  "gieren": 7754,
  "Wahr@@": 7755,
  "honest": 7756,
  "fat": 7757,
  "Körpers": 7758,
  "betr@@": 7759,
  "theater": 7760,
  "Verhaltens@@": 7761,
  "spot": 7762,
  "investi@@": 7763,
  "smell": 7764,
  "Polizei": 7765,
  "relativ": 7766,
  "ament": 7767,
  "bauten": 7768,
  "Code": 7769,
  "verbindet": 7770,
  "cer": 7771,
  "married": 7772,
  "Kopf@@": 7773,
  "wichtigen": 7774,
  "gestorben": 7775,
  "morgens": 7776,
  "stimmen": 7777,
  "heisst": 7778,
  "früh": 7779,
  "interaction": 7780,
  "reisen": 7781,
  "mig@@": 7782,
  "musst": 7783,
  "cular": 7784,
  "Hor@@": 7785,
  "heavy": 7786,
  "Britain": 7787,
  "fizieren": 7788,
  "mentioned": 7789,
  "Manhattan": 7790,
  "Kräfte": 7791,
  "Eindruck": 7792,
  "atic": 7793,
  "ogen@@": 7794,
  "Bli@@": 7795,
  "Kalifornien": 7796,
  "university": 7797,
  "affec@@": 7798,
  "Mitt@@": 7799,
  "Wir": 7800,
  "engl@@": 7801,
  "tern@@": 7802,
  "bevölk@@": 7803,
  "Fa@@": 7804,
  "Handy": 7805,
  "Dinosaurier": 7806,
  "nov@@": 7807,
  "pfel": 7808,
  "indic@@": 7809,
  "verfü@@": 7810,
  "rier": 7811,
  "ernähr@@": 7812,
  "dün@@": 7813,
  "Wet@@": 7814,
  "olds": 7815,
  "starten": 7816,
  "hell": 7817,
  "Ten@@": 7818,
  "match": 7819,
  "solch": 7820,
  "ji@@": 7821,
  "Produktion": 7822,
  "maß": 7823,
  "Gesam@@": 7824,
  "Titel": 7825,
  "seas@@": 7826,
  "kid@@": 7827,
  "tian": 7828,
  "angenommen": 7829,
  "sprachen": 7830,
  "wobei": 7831,
  "Alzheimer": 7832,
  "whom": 7833,
  "Sequ@@": 7834,
  "Geburt": 7835,
  "shop": 7836,
  "bis@@": 7837,
  "represent": 7838,
  "tumor": 7839,
  "grundlegende": 7840,
  "Algorith@@": 7841,
  "collective": 7842,
  "persönlichen": 7843,
  "hasn": 7844,
  "tomorrow": 7845,
  "Tö@@": 7846,
  "pien": 7847,
  "Wunder": 7848,
  "experts": 7849,
  "winden": 7850,
  "holes": 7851,
  "sper@@": 7852,
  "drän@@": 7853,
  "Glob@@": 7854,
  "Viren": 7855,
  "derungen": 7856,
  "ahr@@": 7857,
  "esse": 7858,
  "unt@@": 7859,
  "mortality": 7860,
  "gefährlich": 7861,
  "Details": 7862,
  "Stimmen": 7863,
  "soviel": 7864,
  "illu@@": 7865,
  "libr@@": 7866,
  "Frem@@": 7867,
  "fert": 7868,
  "isiert": 7869,
  "zwan@@": 7870,
  "beschle@@": 7871,
  "farm": 7872,
  "survi@@": 7873,
  "Wahl@@": 7874,
  "cious": 7875,
  "näher@@": 7876,
  "Fleisch": 7877,
  "schule": 7878,
  "suppose": 7879,
  "tioning": 7880,
  "entrepreneur@@": 7881,
  "magazine": 7882,
  "gessen": 7883,
  "labor@@": 7884,
  "äng@@": 7885,
  "sul@@": 7886,
  "aded": 7887,
  "abge@@": 7888,
  "artificial": 7889,
  "consequences": 7890,
  "industrie": 7891,
  "täten": 7892,
  "Cal@@": 7893,
  "Erklärung": 7894,
  "coal": 7895,
  "atur@@": 7896,
  "Hol@@": 7897,
  "Roh@@": 7898,
  "Sek@@": 7899,
  "K.": 7900,
  "incre@@": 7901,
  "ids": 7902,
  "expression": 7903,
  "duc@@": 7904,
  "Entwickl@@": 7905,
  "bende": 7906,
  "definieren": 7907,
  "mov@@": 7908,
  "infin@@": 7909,
  "circum@@": 7910,
  "Schlüssel": 7911,
  "tte": 7912,
  "producing": 7913,
  "Mac@@": 7914,
  "Künst@@": 7915,
  "spielte": 7916,
  "viol@@": 7917,
  "ohnung": 7918,
  "Inn@@": 7919,
  "sport": 7920,
  "chemicals": 7921,
  "Wo@@": 7922,
  "diag@@": 7923,
  "erscheinen": 7924,
  "beeindruck@@": 7925,
  "bildung": 7926,
  "Zeitalter": 7927,
  "agina": 7928,
  "funk@@": 7929,
  "CA@@": 7930,
  "muster": 7931,
  "waves": 7932,
  "strategy": 7933,
  "leadership": 7934,
  "integri@@": 7935,
  "rede": 7936,
  "obes@@": 7937,
  "Satz": 7938,
  "Bauern": 7939,
  "Japanese": 7940,
  "dran": 7941,
  "beispiel@@": 7942,
  "appear": 7943,
  "awful": 7944,
  "friend@@": 7945,
  "employe@@": 7946,
  "ured": 7947,
  "osity": 7948,
  "Schlag@@": 7949,
  "Rock@@": 7950,
  "trials": 7951,
  "phäre": 7952,
  "Gü@@": 7953,
  "sön@@": 7954,
  "Cambridge": 7955,
  "redu@@": 7956,
  "Stim@@": 7957,
  "Alex@@": 7958,
  "kö@@": 7959,
  "Tru@@": 7960,
  "former": 7961,
  "grös@@": 7962,
  "tell@@": 7963,
  "Stad@@": 7964,
  "oral": 7965,
  "Gewebe": 7966,
  "ances": 7967,
  "character@@": 7968,
  "Sicherheits@@": 7969,
  "zuneh@@": 7970,
  "shoul@@": 7971,
  "Ill@@": 7972,
  "Dien@@": 7973,
  "Global": 7974,
  "roughly": 7975,
  "hler": 7976,
  "Anwen@@": 7977,
  "unding": 7978,
  "besonder@@": 7979,
  "Programmi@@": 7980,
  "marri@@": 7981,
  "erzä@@": 7982,
  "eps": 7983,
  "traditionellen": 7984,
  "gehei@@": 7985,
  "entspricht": 7986,
  "Flas@@": 7987,
  "Genom": 7988,
  "persönliche": 7989,
  "stands": 7990,
  "ually": 7991,
  "Arbeiten": 7992,
  "eau": 7993,
  "detail": 7994,
  "simpli@@": 7995,
  "remote": 7996,
  "erfinden": 7997,
  "businesses": 7998,
  "analysi@@": 7999,
  "leader": 8000,
  "sichtlich": 8001,
  "Politiker": 8002,
  "hypo@@": 8003,
  "desert": 8004,
  "Forscher": 8005,
  "rom": 8006,
  "rates": 8007,
  "Ameisen": 8008,
  "formation": 8009,
  "Ever@@": 8010,
  "evil": 8011,
  "fell": 8012,
  "chungen": 8013,
  "hen@@": 8014,
  "Zer@@": 8015,
  "ols": 8016,
  "Deutsch@@": 8017,
  "dit": 8018,
  "agne": 8019,
  "emerging": 8020,
  "grundsätzlich": 8021,
  "Geld@@": 8022,
  "Stufe": 8023,
  "cloud": 8024,
  "battery": 8025,
  "äter": 8026,
  "yesterday": 8027,
  "associated": 8028,
  "Viet@@": 8029,
  "bliothe@@": 8030,
  "Epide@@": 8031,
  "Han@@": 8032,
  "sad": 8033,
  "weißt": 8034,
  "annehmen": 8035,
  "contact": 8036,
  "chten@@": 8037,
  "ält": 8038,
  "distribu@@": 8039,
  "Got@@": 8040,
  "proce@@": 8041,
  "alists": 8042,
  "100,000": 8043,
  "threat": 8044,
  "section": 8045,
  "Nation": 8046,
  "diert": 8047,
  "Carol@@": 8048,
  "soldiers": 8049,
  "Ech@@": 8050,
  "teeth": 8051,
  "Glauben": 8052,
  "lessons": 8053,
  "pathy": 8054,
  "publ@@": 8055,
  "ques@@": 8056,
  "Gand@@": 8057,
  "Berg@@": 8058,
  "In": 8059,
  "Kombin@@": 8060,
  "awar@@": 8061,
  "Schmerz": 8062,
  "keeping": 8063,
  "erscheint": 8064,
  "Entdeckung": 8065,
  "Musi@@": 8066,
  "Professor": 8067,
  "Bewegungen": 8068,
  "quasi": 8069,
  "chemistry": 8070,
  "DP": 8071,
  "kenn@@": 8072,
  "gäbe": 8073,
  "pflanzen": 8074,
  "Flie@@": 8075,
  "medizinische": 8076,
  "vermu@@": 8077,
  "are@@": 8078,
  "cutting": 8079,
  "Mission": 8080,
  "stammt": 8081,
  "thri@@": 8082,
  "observ@@": 8083,
  "3,000": 8084,
  "Blas@@": 8085,
  "bear": 8086,
  "sett@@": 8087,
  "ander": 8088,
  "Schn@@": 8089,
  "Augenblick": 8090,
  "hos@@": 8091,
  "Lang@@": 8092,
  "president": 8093,
  "independent": 8094,
  "anderth@@": 8095,
  "situ@@": 8096,
  "Geschle@@": 8097,
  "notwendig": 8098,
  "influ@@": 8099,
  "voices": 8100,
  "mäß@@": 8101,
  "Vorfahren": 8102,
  "nervous": 8103,
  "voraus@@": 8104,
  "Ansicht": 8105,
  "Mad@@": 8106,
  "acade@@": 8107,
  "verfügbar": 8108,
  "violent": 8109,
  "ctor": 8110,
  "natürlichen": 8111,
  "Glau@@": 8112,
  "cele@@": 8113,
  "Werbung": 8114,
  "Hinsicht": 8115,
  "ef": 8116,
  "Religi@@": 8117,
  "anti": 8118,
  "develop@@": 8119,
  "pft": 8120,
  "launched": 8121,
  "unkte": 8122,
  "springen": 8123,
  "meiste": 8124,
  "homes": 8125,
  "train@@": 8126,
  "erter": 8127,
  "eping": 8128,
  "wenigen": 8129,
  "möglichkeiten": 8130,
  "embar@@": 8131,
  "persönlich": 8132,
  "schneiden": 8133,
  "surprised": 8134,
  "entstanden": 8135,
  "Ac@@": 8136,
  "Depres@@": 8137,
  "radik@@": 8138,
  "tox@@": 8139,
  "tane@@": 8140,
  "inne": 8141,
  "fantastisch": 8142,
  "halbe": 8143,
  "deinen": 8144,
  "rig": 8145,
  "orders": 8146,
  "worfen": 8147,
  "poor@@": 8148,
  "anwenden": 8149,
  "ordnung": 8150,
  "stery": 8151,
  "Hunder@@": 8152,
  "setting": 8153,
  "kunft": 8154,
  "All": 8155,
  "mma": 8156,
  "expe@@": 8157,
  "ühr@@": 8158,
  "pleasure": 8159,
  "Fig@@": 8160,
  "Kindheit": 8161,
  "Howard": 8162,
  "pop": 8163,
  "müsste": 8164,
  "steuern": 8165,
  "ight": 8166,
  "berührt": 8167,
  "Net@@": 8168,
  "testing": 8169,
  "viert": 8170,
  "wechseln": 8171,
  "denten": 8172,
  "sides": 8173,
  "40@@": 8174,
  "equipment": 8175,
  "schrän@@": 8176,
  "Gesi@@": 8177,
  "Inst@@": 8178,
  "Ford": 8179,
  "cis@@": 8180,
  "olz": 8181,
  "importance": 8182,
  "percei@@": 8183,
  "fix@@": 8184,
  "ized": 8185,
  "dinosaurs": 8186,
  "Werk@@": 8187,
  "aup@@": 8188,
  "Weile": 8189,
  "disaster": 8190,
  "Vorteil": 8191,
  "aufgebaut": 8192,
  "beschlossen": 8193,
  "schlimm@@": 8194,
  "ulp@@": 8195,
  "Bre@@": 8196,
  "introdu@@": 8197,
  "Straßen@@": 8198,
  "vertrauen": 8199,
  "killing": 8200,
  "digkeit": 8201,
  "Protot@@": 8202,
  "Kenya": 8203,
  "nötig": 8204,
  "Platt@@": 8205,
  "professor": 8206,
  "weib@@": 8207,
  "dealing": 8208,
  "auff@@": 8209,
  "ktiv": 8210,
  "tw@@": 8211,
  "Methoden": 8212,
  "Zeichen": 8213,
  "Mem@@": 8214,
  "verbrachte": 8215,
  "sub": 8216,
  "feedback": 8217,
  "tar": 8218,
  "And": 8219,
  "hospit@@": 8220,
  "sheit": 8221,
  "Tat@@": 8222,
  "Mexiko": 8223,
  "studieren": 8224,
  "Wald": 8225,
  "beantworten": 8226,
  "Aspekt": 8227,
  "neuros@@": 8228,
  "feelings": 8229,
  "elling": 8230,
  "lossen@@": 8231,
  "Spieler": 8232,
  "cin": 8233,
  "ologische": 8234,
  "legi@@": 8235,
  "materi@@": 8236,
  "direct": 8237,
  "sende": 8238,
  "coral": 8239,
  "concl@@": 8240,
  "facing": 8241,
  "sinn": 8242,
  "Knochen": 8243,
  "moderne": 8244,
  "enem@@": 8245,
  "govern@@": 8246,
  "Häuser": 8247,
  "demand": 8248,
  "tops": 8249,
  "than@@": 8250,
  "ahn": 8251,
  "Mei@@": 8252,
  "regul@@": 8253,
  "liebt": 8254,
  "cultures": 8255,
  "sens": 8256,
  "zufrie@@": 8257,
  "quired": 8258,
  "pflan@@": 8259,
  "gewissen": 8260,
  "chain": 8261,
  "establ@@": 8262,
  "collect": 8263,
  "abilities": 8264,
  "conf@@": 8265,
  "player": 8266,
  "accident": 8267,
  "uch": 8268,
  "discipl@@": 8269,
  "gesto@@": 8270,
  "essential": 8271,
  "stoffen": 8272,
  "affected": 8273,
  "Dienst@@": 8274,
  "Entfer@@": 8275,
  "dafrika": 8276,
  "pre": 8277,
  "faszin@@": 8278,
  "Staat": 8279,
  "ritt@@": 8280,
  "sever@@": 8281,
  "call@@": 8282,
  "vable": 8283,
  "island": 8284,
  "occasi@@": 8285,
  "danken": 8286,
  "Krank@@": 8287,
  "reci@@": 8288,
  "komm@@": 8289,
  "Erfol@@": 8290,
  "reduzieren": 8291,
  "selten": 8292,
  "bright": 8293,
  "letters": 8294,
  "hing@@": 8295,
  "prot@@": 8296,
  "forced": 8297,
  "pic@@": 8298,
  "trilli@@": 8299,
  "movies": 8300,
  "ental": 8301,
  "depression": 8302,
  "details": 8303,
  "matic": 8304,
  "resource": 8305,
  "tradition@@": 8306,
  "zerstört": 8307,
  "Beweise": 8308,
  "Planet": 8309,
  "Ir@@": 8310,
  "basier@@": 8311,
  "biert": 8312,
  "elem@@": 8313,
  "mente": 8314,
  "technical": 8315,
  "beinahe": 8316,
  "maxim@@": 8317,
  "hren@@": 8318,
  "Lebenser@@": 8319,
  "lunch": 8320,
  "malen": 8321,
  "Funktion": 8322,
  "Kreu@@": 8323,
  "ept": 8324,
  "Auswa@@": 8325,
  "Gesundheitswesen": 8326,
  "Dy@@": 8327,
  "molecular": 8328,
  "practical": 8329,
  "selling": 8330,
  "intelligen@@": 8331,
  "weather": 8332,
  "Folge": 8333,
  "announ@@": 8334,
  "Online": 8335,
  "grid": 8336,
  "Korruption": 8337,
  "forsch@@": 8338,
  "Stre@@": 8339,
  "Dunk@@": 8340,
  "westlichen": 8341,
  "Temperatur": 8342,
  "ource": 8343,
  "700": 8344,
  "unabhängig": 8345,
  "motivi@@": 8346,
  "vember": 8347,
  "kins": 8348,
  "property": 8349,
  "ardo": 8350,
  "wirtschaftliche": 8351,
  "round": 8352,
  "mög@@": 8353,
  "Statistiken": 8354,
  "erneu@@": 8355,
  "Beobach@@": 8356,
  "dritt@@": 8357,
  "zerstören": 8358,
  "iP@@": 8359,
  "Wissenschaft@@": 8360,
  "wa": 8361,
  "zop@@": 8362,
  "aufzubauen": 8363,
  "Versch@@": 8364,
  "angesehen": 8365,
  "skelet@@": 8366,
  "raft": 8367,
  "Canada": 8368,
  "clinical": 8369,
  "Florida": 8370,
  "tened": 8371,
  "vermitteln": 8372,
  "recy@@": 8373,
  "flat": 8374,
  "celebra@@": 8375,
  "quali@@": 8376,
  "ull@@": 8377,
  "schätz@@": 8378,
  "Maus": 8379,
  "Landschaft": 8380,
  "pet": 8381,
  "anen": 8382,
  "Tony": 8383,
  "sophistic@@": 8384,
  "Cap@@": 8385,
  "Film@@": 8386,
  "freu@@": 8387,
  "biom@@": 8388,
  "craft": 8389,
  "bereich": 8390,
  "bede@@": 8391,
  "steel": 8392,
  "shap@@": 8393,
  "small@@": 8394,
  "haus": 8395,
  "Lektion": 8396,
  "Operation": 8397,
  "dameri@@": 8398,
  "wartung": 8399,
  "Ägyp@@": 8400,
  "gü@@": 8401,
  "Get@@": 8402,
  "players": 8403,
  "Bruder": 8404,
  "trip": 8405,
  "install@@": 8406,
  "Schutz": 8407,
  "baute": 8408,
  "dry": 8409,
  "äusern": 8410,
  "scene": 8411,
  "gehend": 8412,
  "Privat@@": 8413,
  "sugar": 8414,
  "houses": 8415,
  "stac@@": 8416,
  "entworfen": 8417,
  "enjo@@": 8418,
  "existence": 8419,
  "Baum@@": 8420,
  "intellectual": 8421,
  "angle": 8422,
  "kilometers": 8423,
  "Pre@@": 8424,
  "mäßig": 8425,
  "Bevölk@@": 8426,
  "feststellen": 8427,
  "28": 8428,
  "ielen": 8429,
  "exu@@": 8430,
  "regular": 8431,
  "eth": 8432,
  "ye@@": 8433,
  "researchers": 8434,
  "Gore": 8435,
  "controlled": 8436,
  "sources": 8437,
  "effectively": 8438,
  "Mol@@": 8439,
  "Website": 8440,
  "jedenfalls": 8441,
  "Saturn": 8442,
  "ohn@@": 8443,
  "Roll@@": 8444,
  "evolutionary": 8445,
  "digitalen": 8446,
  "elektron@@": 8447,
  "liked": 8448,
  "untersucht": 8449,
  "avoid": 8450,
  "Teles@@": 8451,
  "Bereiche": 8452,
  "users": 8453,
  "Nat@@": 8454,
  "blei@@": 8455,
  "zugänglich": 8456,
  "Hollywood": 8457,
  "eingesch@@": 8458,
  "hie@@": 8459,
  "brü@@": 8460,
  "teuer": 8461,
  "dots": 8462,
  "Charakter": 8463,
  "Fälle": 8464,
  "categ@@": 8465,
  "joy": 8466,
  "Anrei@@": 8467,
  "ersetzen": 8468,
  "etry": 8469,
  "zon": 8470,
  "Internet@@": 8471,
  "nö@@": 8472,
  "120": 8473,
  "Zivilisation": 8474,
  "gence": 8475,
  "Verbesser@@": 8476,
  "Toi@@": 8477,
  "Nachbarn": 8478,
  "spoke": 8479,
  "empty": 8480,
  "beha@@": 8481,
  "1960": 8482,
  "artige": 8483,
  "Bienen": 8484,
  "graphic": 8485,
  "Kulturen": 8486,
  "Big": 8487,
  "graben": 8488,
  "actor": 8489,
  "beschäftigen": 8490,
  "Elektrizität": 8491,
  "langer": 8492,
  "kus@@": 8493,
  "addition": 8494,
  "tliche": 8495,
  "Viel@@": 8496,
  "glieder": 8497,
  "meaning@@": 8498,
  "schafts@@": 8499,
  "alle@@": 8500,
  "Kil@@": 8501,
  "Zweck": 8502,
  "natur@@": 8503,
  "erkennt": 8504,
  "bai": 8505,
  "inspi@@": 8506,
  "Ereig@@": 8507,
  "mix": 8508,
  "Kerl": 8509,
  "Entdeck@@": 8510,
  "entdeckte": 8511,
  "definitely": 8512,
  "dunkl@@": 8513,
  "Oc@@": 8514,
  "spectrum": 8515,
  "stens": 8516,
  "spieler": 8517,
  "ekul@@": 8518,
  "interface": 8519,
  "erlebt": 8520,
  "Gor@@": 8521,
  "thoughts": 8522,
  "sharks": 8523,
  "maker": 8524,
  "Australia": 8525,
  "zuzu@@": 8526,
  "considered": 8527,
  "Lied": 8528,
  "tober": 8529,
  "budget": 8530,
  "Wesentlichen": 8531,
  "welchem": 8532,
  "gebeten": 8533,
  "mented": 8534,
  "durchschnitt@@": 8535,
  "ilfe": 8536,
  "daily": 8537,
  "diet": 8538,
  "suchte": 8539,
  "Gemeinden": 8540,
  "müssten": 8541,
  "ination": 8542,
  "berich@@": 8543,
  "50,000": 8544,
  "Galaxie": 8545,
  "techniques": 8546,
  "nden": 8547,
  "verteilt": 8548,
  "pap@@": 8549,
  "frü@@": 8550,
  "leiten": 8551,
  "Nieder@@": 8552,
  "adult": 8553,
  "Em@@": 8554,
  "Malaria": 8555,
  "Kaffee": 8556,
  "underneath": 8557,
  "geändert": 8558,
  "nde": 8559,
  "specifically": 8560,
  "sla@@": 8561,
  "gation": 8562,
  "Kle@@": 8563,
  "bizar@@": 8564,
  "robo@@": 8565,
  "mmet@@": 8566,
  "rect": 8567,
  "status": 8568,
  "tierten": 8569,
  "beobachtet": 8570,
  "eleph@@": 8571,
  "worldwide": 8572,
  "durchschnittliche": 8573,
  "mur@@": 8574,
  "Quelle": 8575,
  "pflich@@": 8576,
  "eindeu@@": 8577,
  "besuchen": 8578,
  "arrived": 8579,
  "lebenden": 8580,
  "ident": 8581,
  "Sicht@@": 8582,
  "hadn": 8583,
  "sprung": 8584,
  "gefangen": 8585,
  "wine": 8586,
  "sear@@": 8587,
  "controll@@": 8588,
  "erklär@@": 8589,
  "ützen": 8590,
  "musici@@": 8591,
  "Ton@@": 8592,
  "denheit": 8593,
  "cards": 8594,
  "prove": 8595,
  "anische": 8596,
  "chap@@": 8597,
  "spruch": 8598,
  "ografie": 8599,
  "heißen": 8600,
  "blieb": 8601,
  "Eric": 8602,
  "warm": 8603,
  "curious": 8604,
  "connections": 8605,
  "wirkliche": 8606,
  "onder@@": 8607,
  "stood": 8608,
  "ritten": 8609,
  "spring": 8610,
  "ix": 8611,
  "Zuhause": 8612,
  "possibilities": 8613,
  "wesentlich": 8614,
  "abili@@": 8615,
  "emen": 8616,
  "bac@@": 8617,
  "mith": 8618,
  "photographs": 8619,
  "wings": 8620,
  "Dokum@@": 8621,
  "distin@@": 8622,
  "schwarze": 8623,
  "bus": 8624,
  "Arbeitsp@@": 8625,
  "gran@@": 8626,
  "ville": 8627,
  "account": 8628,
  "Großmutter": 8629,
  "fossil": 8630,
  "transformation": 8631,
  "secon@@": 8632,
  "SE@@": 8633,
  "jähr@@": 8634,
  "verschwinden": 8635,
  "gold": 8636,
  "magnetic": 8637,
  "Überrasch@@": 8638,
  "grosse": 8639,
  "plate": 8640,
  "überprü@@": 8641,
  "nü@@": 8642,
  "mathematical": 8643,
  "whereas": 8644,
  "inning": 8645,
  "züglich": 8646,
  "sey": 8647,
  "junger": 8648,
  "technologi@@": 8649,
  "ember": 8650,
  "picked": 8651,
  "drück@@": 8652,
  "stärker": 8653,
  "Präsi@@": 8654,
  "operate": 8655,
  "kompliziert": 8656,
  "von@@": 8657,
  "wirklichen": 8658,
  "sache": 8659,
  "hinten": 8660,
  "kurzem": 8661,
  "Chris@@": 8662,
  "kennung": 8663,
  "Haup@@": 8664,
  "schlechten": 8665,
  "nehmer": 8666,
  "reaction": 8667,
  "lustig": 8668,
  "organs": 8669,
  "utz": 8670,
  "green@@": 8671,
  "glied": 8672,
  "radical": 8673,
  "gor@@": 8674,
  "nützlich": 8675,
  "solved": 8676,
  "nations": 8677,
  "uner@@": 8678,
  "äne": 8679,
  "Maga@@": 8680,
  "user": 8681,
  "marketing": 8682,
  "tons": 8683,
  "gift": 8684,
  "trick": 8685,
  "Män@@": 8686,
  "pers": 8687,
  "Mechan@@": 8688,
  "Grün@@": 8689,
  "quid": 8690,
  "clou@@": 8691,
  "Schmer@@": 8692,
  "kum@@": 8693,
  "Schwei@@": 8694,
  "gon@@": 8695,
  "tests": 8696,
  "videos": 8697,
  "Bot@@": 8698,
  "21@@": 8699,
  "serv@@": 8700,
  "stopp@@": 8701,
  "charac@@": 8702,
  "writer": 8703,
  "arts": 8704,
  "mitteln": 8705,
  "lay": 8706,
  "ending": 8707,
  "Universi@@": 8708,
  "rou@@": 8709,
  "druck@@": 8710,
  "alternative": 8711,
  "stone": 8712,
  "Las@@": 8713,
  "Laden": 8714,
  "wher@@": 8715,
  "unken": 8716,
  "deh@@": 8717,
  "ete": 8718,
  "ships": 8719,
  "standen": 8720,
  "esen@@": 8721,
  "Asi@@": 8722,
  "partner": 8723,
  "absolute": 8724,
  "tles": 8725,
  "ingu@@": 8726,
  "iting": 8727,
  "anding": 8728,
  "nom@@": 8729,
  "andel": 8730,
  "See": 8731,
  "sition": 8732,
  "sten@@": 8733,
  "Ara@@": 8734,
  "abl@@": 8735,
  "Prof@@": 8736,
  "lossen": 8737,
  "management": 8738,
  "höh@@": 8739,
  "Kontro@@": 8740,
  "quit@@": 8741,
  "Wass@@": 8742,
  "stie@@": 8743,
  "wire": 8744,
  "pleas@@": 8745,
  "restaurant": 8746,
  "ping": 8747,
  "privi@@": 8748,
  "shall": 8749,
  "get@@": 8750,
  "lob@@": 8751,
  "sand@@": 8752,
  "fem@@": 8753,
  "vill@@": 8754,
  "jähri@@": 8755,
  "unbe@@": 8756,
  "rad": 8757,
  "stein": 8758,
  "cil": 8759,
  "grund@@": 8760,
  "aptop": 8761,
  "Situ@@": 8762,
  "veget@@": 8763,
  "stup@@": 8764,
  "unds": 8765,
  "Islam@@": 8766,
  "wirtschaft@@": 8767,
  "Kohl@@": 8768,
  "phan@@": 8769,
  "caus@@": 8770,
  "dire@@": 8771,
  "außen": 8772,
  "cken@@": 8773,
  "kür@@": 8774,
  "feu@@": 8775,
  "ctors": 8776,
  "toi@@": 8777,
  "cky": 8778,
  "ief": 8779,
  "bine": 8780,
  "ld@@": 8781,
  "chnologie": 8782,
  "zte": 8783,
  "Reg@@": 8784,
  "spir@@": 8785,
  "dient": 8786,
  "Vide@@": 8787,
  "emerg@@": 8788,
  "mp": 8789,
  "itation": 8790,
  "smar@@": 8791,
  "High": 8792,
  "hes": 8793,
  "arly": 8794,
  "atives": 8795,
  "Größ@@": 8796,
  "anal@@": 8797,
  "stam@@": 8798,
  "gue": 8799,
  "master": 8800,
  "intelli@@": 8801,
  "sexu@@": 8802,
  "Pacific": 8803,
  "portra@@": 8804,
  "aring": 8805,
  "osi@@": 8806,
  "pass@@": 8807,
  "astrophe": 8808,
  "hlte": 8809,
  "coura@@": 8810,
  "medic@@": 8811,
  "schnitt@@": 8812,
  "Gen": 8813,
  "oxi@@": 8814,
  "secre@@": 8815,
  "Ok@@": 8816,
  "steu@@": 8817,
  "Leh@@": 8818,
  "schließ@@": 8819,
  "proble@@": 8820,
  "selbe": 8821,
  "ee@@": 8822,
  "ka@@": 8823,
  "rant": 8824,
  "woll@@": 8825,
  "wirtschaft": 8826,
  "verstän@@": 8827,
  "wahrschein@@": 8828,
  "eile": 8829,
  "plom@@": 8830,
  "erstör@@": 8831,
  "ham@@": 8832,
  "extre@@": 8833,
  "außer@@": 8834,
  "Chan@@": 8835,
  "Wör@@": 8836,
  "üben": 8837,
  "natür@@": 8838,
  "artic@@": 8839,
  "les@@": 8840,
  "lock": 8841,
  "Robot@@": 8842,
  "gie": 8843,
  "Show": 8844,
  "toll@@": 8845,
  "Milli@@": 8846,
  "allen@@": 8847,
  "ambi@@": 8848,
  "via": 8849,
  "ample": 8850,
  "é@@": 8851,
  "meister": 8852,
  "clas@@": 8853,
  "instrument": 8854,
  "Entsch@@": 8855,
  "gab@@": 8856,
  "fail@@": 8857,
  "phot@@": 8858,
  "pig@@": 8859,
  "nett": 8860,
  "Obje@@": 8861,
  "dopp@@": 8862,
  "chst": 8863,
  "ano": 8864,
  "dere": 8865,
  "iso@@": 8866,
  "olle": 8867,
  "isible": 8868,
  "chtungen": 8869,
  "bene": 8870,
  "wise": 8871,
  "val": 8872,
  "Pros@@": 8873,
  "Temp@@": 8874,
  "rats": 8875,
  "gif@@": 8876,
  "Schlüs@@": 8877,
  "gli@@": 8878,
  "ox@@": 8879,
  "Mod@@": 8880,
  "thr@@": 8881,
  "aner": 8882,
  "liver": 8883,
  "Schwi@@": 8884,
  "Netzwer@@": 8885,
  "acci@@": 8886,
  "member": 8887,
  "taste": 8888,
  "rapi@@": 8889,
  "simpl@@": 8890,
  "verage": 8891,
  "hing": 8892,
  "ever@@": 8893,
  "kontro@@": 8894,
  "gewöh@@": 8895,
  "astronom@@": 8896,
  "Arm@@": 8897,
  "Industri@@": 8898,
  "eah": 8899,
  "licherweise": 8900,
  "new@@": 8901,
  "dle": 8902,
  "Inv@@": 8903,
  "Mö@@": 8904,
  "acqu@@": 8905,
  "Ren@@": 8906,
  "dies@@": 8907,
  "sustain@@": 8908,
  "tisch@@": 8909,
  "Q": 8910,
  "yo": 8911,
  "arri@@": 8912,
  "temp@@": 8913,
  "Ner@@": 8914,
  "fang": 8915,
  "studio": 8916,
  "dow": 8917,
  "zone": 8918,
  "jects": 8919,
  "hoff@@": 8920,
  "uri@@": 8921,
  "Mel@@": 8922,
  "dium": 8923,
  "é": 8924,
  "gment": 8925,
  "Wir@@": 8926,
  "Prinzi@@": 8927,
  "bet": 8928,
  "genau@@": 8929,
  "flä@@": 8930,
  "ond": 8931,
  "schni@@": 8932,
  "mä@@": 8933,
  "Sam@@": 8934,
  "rote": 8935,
  "Diag@@": 8936,
  "aum": 8937,
  "teles@@": 8938,
  "änder": 8939,
  "tex": 8940,
  "civili@@": 8941,
  "stum": 8942,
  "Laptop": 8943,
  "bol@@": 8944,
  "Open": 8945,
  "Zeu@@": 8946,
  "rot": 8947,
  "drew": 8948,
  "fascin@@": 8949,
  "fluss": 8950,
  "ote": 8951,
  "Demok@@": 8952,
  "afts@@": 8953,
  "propor@@": 8954,
  "ros": 8955,
  "Russ@@": 8956,
  "absor@@": 8957,
  "Ob@@": 8958,
  "comple@@": 8959,
  "Materi@@": 8960,
  "Meer@@": 8961,
  "Ham@@": 8962,
  "relative": 8963,
  "chnolog@@": 8964,
  "rang": 8965,
  "dian": 8966,
  "wech@@": 8967,
  "ghting": 8968,
  "arily": 8969,
  "mas": 8970,
  "melt": 8971,
  "dnis": 8972,
  "tats@@": 8973,
  "thin@@": 8974,
  "Schü@@": 8975,
  "phenomen@@": 8976,
  "So": 8977,
  "Pas@@": 8978,
  "susta@@": 8979,
  "thin": 8980,
  "Spra@@": 8981,
  "amoun@@": 8982,
  "nah@@": 8983,
  "heu@@": 8984,
  "Leben@@": 8985,
  "Sum@@": 8986,
  "resear@@": 8987,
  "titu@@": 8988,
  "N.": 8989,
  "Geschi@@": 8990,
  "ks@@": 8991,
  "views": 8992,
  "entlich": 8993,
  "dered": 8994,
  "diplom@@": 8995,
  "nat@@": 8996,
  "Sol@@": 8997,
  "interes@@": 8998,
  "quanti@@": 8999,
  "free@@": 9000,
  "diesel@@": 9001,
  "trum": 9002,
  "beobach@@": 9003,
  "deci@@": 9004,
  "eur": 9005,
  "eilen": 9006,
  "consi@@": 9007,
  "emo@@": 9008,
  "massi@@": 9009,
  "elimin@@": 9010,
  "auton@@": 9011,
  "mlich": 9012,
  "hem@@": 9013,
  "motor": 9014,
  "Scho@@": 9015,
  "evolution@@": 9016,
  "ope": 9017,
  "innovative": 9018,
  "treat@@": 9019,
  "tries": 9020,
  "west@@": 9021,
  "leb@@": 9022,
  "tus": 9023,
  "orizon@@": 9024,
  "gangen": 9025,
  "seits": 9026,
  "Ani@@": 9027,
  "Entschei@@": 9028,
  "bedeu@@": 9029,
  "ple": 9030,
  "Bakter@@": 9031,
  "competi@@": 9032,
  "ghter": 9033,
  "expl@@": 9034,
  "Organis@@": 9035,
  "Miss@@": 9036,
  "halten@@": 9037,
  "Wissensch@@": 9038,
  "Exper@@": 9039,
  "Okay": 9040,
  "toler@@": 9041,
  "mat": 9042,
  "intel@@": 9043,
  "ypen": 9044,
  "challen@@": 9045,
  "abo@@": 9046,
  "curi@@": 9047,
  "Union": 9048,
  "wesen": 9049,
  "Mein@@": 9050,
  "äf@@": 9051,
  "ographic": 9052,
  "normal@@": 9053,
  "Kul@@": 9054,
  "success@@": 9055,
  "TEDx@@": 9056,
  "simil@@": 9057,
  "fam@@": 9058,
  "isten@@": 9059,
  "foc@@": 9060,
  "perman@@": 9061,
  "genheit": 9062,
  "Kommunik@@": 9063,
  "vehic@@": 9064,
  "Spe@@": 9065,
  "mean@@": 9066,
  "Experim@@": 9067,
  "II": 9068,
  "samkeit": 9069,
  "dens": 9070,
  "turen": 9071,
  "bloo@@": 9072,
  "signific@@": 9073,
  "behand@@": 9074,
  "invest@@": 9075,
  "nütz@@": 9076,
  "esh": 9077,
  "räfte": 9078,
  "Erei@@": 9079,
  "schö@@": 9080,
  "ty@@": 9081,
  "atten@@": 9082,
  "mysteri@@": 9083,
  "Dor@@": 9084,
  "Project": 9085,
  "pop@@": 9086,
  "schä@@": 9087,
  "confli@@": 9088,
  "troffen": 9089,
  "kei@@": 9090,
  "pose": 9091,
  "ello": 9092,
  "reser@@": 9093,
  "rieb": 9094,
  "Hon@@": 9095,
  "magne@@": 9096,
  "tent@@": 9097,
  "deu@@": 9098,
  "nachzu@@": 9099,
  "einzel@@": 9100,
  "hyper@@": 9101,
  "inse@@": 9102,
  "alem": 9103,
  "B.": 9104,
  "kill@@": 9105,
  "Behand@@": 9106,
  "interessi@@": 9107,
  "til": 9108,
  "Det@@": 9109,
  "Rich@@": 9110,
  "origin@@": 9111,
  "q@@": 9112,
  "Ah@@": 9113,
  "Statisti@@": 9114,
  "Gru@@": 9115,
  "Beweg@@": 9116,
  "stun@@": 9117,
  "State": 9118,
  "fran@@": 9119,
  "const@@": 9120,
  "nien": 9121,
  "tori@@": 9122,
  "spru@@": 9123,
  "gg@@": 9124,
  "fic": 9125,
  "tery": 9126,
  "fossi@@": 9127,
  "Erkenn@@": 9128,
  "photograph@@": 9129,
  "dependent": 9130,
  "iter": 9131,
  "Engl@@": 9132,
  "ko": 9133,
  "geschi@@": 9134,
  "milit@@": 9135,
  "kümm@@": 9136,
  "probab@@": 9137,
  "concer@@": 9138,
  "surpris@@": 9139,
  "unge": 9140,
  "Star@@": 9141,
  "bein@@": 9142,
  "clever": 9143,
  "aft@@": 9144,
  "masch@@": 9145,
  "tron@@": 9146,
  "op": 9147,
  "atest": 9148,
  "Sil@@": 9149,
  "exam@@": 9150,
  "iste": 9151,
  "fau@@": 9152,
  "Phil@@": 9153,
  "Yor@@": 9154,
  "lus@@": 9155,
  "dacht": 9156,
  "dor@@": 9157,
  "Ei@@": 9158,
  "isions": 9159,
  "stum@@": 9160,
  "One": 9161,
  "keiten": 9162,
  "bacter@@": 9163,
  "buil@@": 9164,
  "partic@@": 9165,
  "Gefän@@": 9166,
  "Zi@@": 9167,
  "eili@@": 9168,
  "sign@@": 9169,
  "genom@@": 9170,
  "fill@@": 9171,
  "Sili@@": 9172,
  "spür@@": 9173,
  "iele": 9174,
  "coll@@": 9175,
  "ision": 9176,
  "entrepren@@": 9177,
  "avi@@": 9178,
  "associ@@": 9179,
  "plas@@": 9180,
  "bestimm@@": 9181,
  "hängi@@": 9182,
  "äuser": 9183,
  "persön@@": 9184,
  "Amei@@": 9185,
  "+": 9186,
  "less@@": 9187,
  "gust": 9188,
  "erinn@@": 9189,
  "anten@@": 9190,
  "zerstör@@": 9191,
  "certain@@": 9192,
  "brei@@": 9193,
  "Mill@@": 9194,
  "ural": 9195,
  "hood": 9196,
  "Arbeit@@": 9197,
  "illegal": 9198,
  "ativ@@": 9199,
  "tie": 9200,
  "genan@@": 9201,
  "alth": 9202,
  "Rel@@": 9203,
  "schnei@@": 9204,
  "benö@@": 9205,
  "Archit@@": 9206,
  "zept": 9207,
  "Z": 9208,
  "vered": 9209,
  "Ander@@": 9210,
  "gefühl": 9211,
  "beschäf@@": 9212,
  "erstoff": 9213,
  "dget": 9214,
  "entde@@": 9215,
  "any@@": 9216,
  "struktur": 9217,
  "angen": 9218,
  "kürz@@": 9219,
  "Sozi@@": 9220,
  "Cam@@": 9221,
  "phab@@": 9222,
  "DN@@": 9223,
  "Sing@@": 9224,
  "überzeu@@": 9225,
  "Deta@@": 9226,
  "glie@@": 9227,
  "Zus@@": 9228,
  "ead": 9229,
  "Tun@@": 9230,
  "ices": 9231,
  "wichti@@": 9232,
  "Foundation": 9233,
  "Gehir@@": 9234,
  "Individu@@": 9235,
  "etes": 9236,
  "App@@": 9237,
  "gery": 9238,
  "curr@@": 9239,
  "ticip@@": 9240,
  "publi@@": 9241,
  "pedi@@": 9242,
  "zufäl@@": 9243,
  "ow": 9244,
  "cau@@": 9245,
  "öß@@": 9246,
  "strateg@@": 9247,
  "spac@@": 9248,
  "Temper@@": 9249,
  "Europ@@": 9250,
  "ingungen": 9251,
  "Fern@@": 9252,
  "Pati@@": 9253,
  "verbin@@": 9254,
  "ürf@@": 9255,
  "Ox@@": 9256,
  "Som@@": 9257,
  "müs@@": 9258,
  "blich": 9259,
  "ür": 9260,
  "econ@@": 9261,
  "á@@": 9262,
  "Tem@@": 9263,
  "windigkeit": 9264,
  "erzeu@@": 9265,
  "vin@@": 9266,
  "thi@@": 9267,
  "exter@@": 9268,
  "what@@": 9269,
  "etze": 9270,
  "Lauf@@": 9271,
  "eur@@": 9272,
  "fig": 9273,
  "notwen@@": 9274,
  "Jahrhunder@@": 9275,
  "ile": 9276,
  "amin@@": 9277,
  "herauszu@@": 9278,
  "agri@@": 9279,
  "änden": 9280,
  "entschei@@": 9281,
  "mmt": 9282,
  "eer": 9283,
  "verur@@": 9284,
  "Poliz@@": 9285,
  "Schön@@": 9286,
  "wri@@": 9287,
  "oxy@@": 9288,
  "citi@@": 9289,
  "fortunately": 9290,
  "gent": 9291,
  "zens": 9292,
  "ghtly": 9293,
  "zun@@": 9294,
  "Institu@@": 9295,
  "ahl": 9296,
  "Bewusst@@": 9297,
  "disc@@": 9298,
  "dimen@@": 9299,
  "rank": 9300,
  "trie@@": 9301,
  "ahr": 9302,
  "ce@@": 9303,
  "Person@@": 9304,
  "addres@@": 9305,
  "weap@@": 9306,
  "Hoff@@": 9307,
  "affen": 9308,
  "unterschei@@": 9309,
  "favor@@": 9310,
  "erlau@@": 9311,
  "mail": 9312,
  "ograf@@": 9313,
  "Schwes@@": 9314,
  "hang": 9315,
  "zations": 9316,
  "amerikan@@": 9317,
  "gebung": 9318,
  "äte": 9319,
  "webe": 9320,
  "beza@@": 9321,
  "nst": 9322,
  "kör@@": 9323,
  "pati@@": 9324,
  "diff@@": 9325,
  "ölk@@": 9326,
  "zem": 9327,
  "ament@@": 9328,
  "ore@@": 9329,
  "gebil@@": 9330,
  "follo@@": 9331,
  "unterschied@@": 9332,
  "vels": 9333,
  "ly@@": 9334,
  "beantwor@@": 9335,
  "heal@@": 9336,
  "wirtsch@@": 9337,
  "Leu@@": 9338,
  "expen@@": 9339,
  "vy": 9340,
  "entlichen": 9341,
  "verhin@@": 9342,
  "rely": 9343,
  "geg@@": 9344,
  "bab@@": 9345,
  "berüh@@": 9346,
  "cience": 9347,
  "ution@@": 9348,
  "sation": 9349,
  "tening": 9350,
  "intu@@": 9351,
  "wei": 9352,
  "dinosau@@": 9353,
  "reck@@": 9354,
  "diffic@@": 9355,
  "eld": 9356,
  "spee@@": 9357,
  "sth@@": 9358,
  "consci@@": 9359,
  "Isra@@": 9360,
  "orie": 9361,
  "ree": 9362,
  "class@@": 9363,
  "neighbor@@": 9364,
  "nia": 9365,
  "colleag@@": 9366,
  "ades": 9367,
  "edback": 9368,
  "agement": 9369,
  "Inse@@": 9370,
  "danger@@": 9371,
  "Phän@@": 9372,
  "immedi@@": 9373,
  "commun@@": 9374,
  "gelö@@": 9375,
  "llig": 9376,
  "dama@@": 9377,
  "verantwor@@": 9378,
  "Ty@@": 9379,
  "Bür@@": 9380,
  "ährt": 9381,
  "Auswirk@@": 9382,
  "erf@@": 9383,
  "Gesund@@": 9384,
  "gehör@@": 9385,
  "ähri@@": 9386,
  "fot@@": 9387,
  "profes@@": 9388,
  "stom@@": 9389,
  "sue": 9390,
  "tioned": 9391,
  "ould": 9392,
  "zon@@": 9393,
  "Zivil@@": 9394,
  "commer@@": 9395,
  "Neur@@": 9396,
  "got@@": 9397,
  "bracht": 9398,
  "Ress@@": 9399,
  "soll@@": 9400,
  "ror@@": 9401,
  "has@@": 9402,
  "oun@@": 9403,
  "dam": 9404,
  "..": 9405,
  "mous": 9406,
  "ergie": 9407,
  "rem": 9408,
  "olo@@": 9409,
  "ysi@@": 9410,
  "hist@@": 9411,
  "mption": 9412,
  "port@@": 9413,
  "aster": 9414,
  "quot@@": 9415,
  "differ@@": 9416,
  "with@@": 9417,
  "cum@@": 9418,
  "temper@@": 9419,
  "compas@@": 9420,
  "condi@@": 9421,
  "Sin@@": 9422,
  "Liebl@@": 9423,
  "chni@@": 9424,
  "Pak@@": 9425,
  "fair@@": 9426,
  "zusam@@": 9427,
  "mote": 9428,
  "Identi@@": 9429,
  "falt": 9430,
  "pfer": 9431,
  "Mög@@": 9432,
  "sem@@": 9433,
  "gir@@": 9434,
  "kam@@": 9435,
  "fft": 9436,
  "cially": 9437,
  "staun@@": 9438,
  "eute": 9439,
  "tribu@@": 9440,
  "vent": 9441,
  "nific@@": 9442,
  "Fä@@": 9443,
  "ace@@": 9444,
  "inging": 9445,
  "anim@@": 9446,
  "zel@@": 9447,
  "ject": 9448,
  "engine@@": 9449,
  "kturen": 9450,
  "verfüg@@": 9451,
  "hic": 9452,
  "jour@@": 9453,
  "wea@@": 9454,
  "jenigen": 9455,
  "Kaff@@": 9456,
  "Wirtsch@@": 9457,
  "ernen": 9458,
  "fact@@": 9459,
  "Zivilis@@": 9460,
  "Beisp@@": 9461,
  "Mäd@@": 9462,
  "ings@@": 9463,
  "richti@@": 9464,
  "xim@@": 9465,
  "eters": 9466,
  "Himm@@": 9467,
  "restau@@": 9468,
  "ossi@@": 9469,
  "Kranken@@": 9470,
  "Sc@@": 9471,
  "ahmen": 9472,
  "Ergeb@@": 9473,
  "his@@": 9474,
  "rep@@": 9475,
  "eim@@": 9476,
  "tschaft": 9477,
  "ermög@@": 9478,
  "andem": 9479,
  "einzi@@": 9480,
  "teach@@": 9481,
  "ames": 9482,
  "‹": 9483,
  "Nigeri@@": 9484,
  "›": 9485,
  "Pau@@": 9486,
  "throp@@": 9487,
  "elek@@": 9488,
  "hause": 9489,
  "Gele@@": 9490,
  "Publik@@": 9491,
  "afri@@": 9492,
  "zität": 9493,
  "ih@@": 9494,
  "model@@": 9495,
  "Gener@@": 9496,
  "überras@@": 9497,
  "schied": 9498,
  "Geor@@": 9499,
  "=": 9500,
  "°": 9501,
  ")": 9502,
  "j": 9503,
  "½": 9504,
  "²": 9505,
  "ó@@": 9506,
  "@": 9507,
  "í@@": 9508,
  "‟": 9509,
  "è@@": 9510,
  "#": 9511,
  "‒": 9512,
  "(": 9513,
  "ü": 9514,
  "ñ@@": 9515,
  "β@@": 9516,
  "^": 9517,
  "à": 9518,
  "ç@@": 9519,
  "í": 9520,
  "ê@@": 9521,
  "q": 9522,
  "": 9523,
  "ä": 9524,
  "ã@@": 9525,
  "ó": 9526,
  "ö": 9527,
  "": 9528,
  "*": 9529,
  "": 9530,
  "ø@@": 9531,
  "â@@": 9532,
  "¥": 9533,
  "É@@": 9534,
  "ā@@": 9535,
  "­": 9536,
  "_": 9537,
  "è": 9538,
  "ú@@": 9539,
  "": 9540,
  "อ@@": 9541,
  "£": 9542,
  "œ@@": 9543,
  "×": 9544,
  "β": 9545,
  "": 9546,
  "ô@@": 9547,
  "": 9548,
  "³": 9549,
  "¼": 9550,
  "â": 9551,
  "ï@@": 9552,
  "Ü": 9553,
  "ë@@": 9554,
  "š@@": 9555,
  "©": 9556,
  "่": 9557,
  "ร": 9558,
  "ć": 9559,
  "€": 9560,
  "葱": 9561,
  "你@@": 9562,
  "送@@": 9563,
  "Å@@": 9564,
  "\\": 9565,
  "ý@@": 9566,
  "®": 9567,
  "±": 9568,
  "ē": 9569,
  "Ť": 9570,
  "Ă@@": 9571,
  "，": 9572,
  "√": 9573,
  "¾": 9574,
  "Ä": 9575,
  "á": 9576,
  "к@@": 9577,
  "ë": 9578,
  "à@@": 9579,
  "Ӓ@@": 9580,
  "î@@": 9581,
  "ō@@": 9582,
  "﻿": 9583,
  "ย@@": 9584,
  "ย": 9585
}